<unk>	0
<s>	0
</s>	0
<n>	0
<mask>	0
<pad>	0
er	-0
en	-1
▁s	-2
ar	-3
an	-4
in	-5
et	-6
▁d	-7
▁f	-8
▁m	-9
▁o	-10
at	-11
ll	-12
▁h	-13
▁v	-14
▁t	-15
är	-16
ör	-17
▁k	-18
ch	-19
▁b	-20
▁p	-21
st	-22
om	-23
▁och	-24
ig	-25
or	-26
att	-27
ag	-28
ed	-29
▁i	-30
on	-31
ing	-32
de	-33
▁att	-34
▁a	-35
▁l	-36
▁för	-37
▁g	-38
ka	-39
▁n	-40
▁en	-41
tt	-42
ill	-43
än	-44
ra	-45
na	-46
▁in	-47
el	-48
▁u	-49
▁är	-50
ck	-51
▁på	-52
▁som	-53
is	-54
kt	-55
▁det	-56
re	-57
▁med	-58
▁j	-59
▁S	-60
te	-61
al	-62
▁till	-63
▁av	-64
pp	-65
▁D	-66
ss	-67
▁e	-68
il	-69
år	-70
am	-71
▁st	-72
id	-73
ning	-74
ter	-75
der	-76
it	-77
ån	-78
lig	-79
un	-80
ro	-81
and	-82
▁var	-83
▁har	-84
▁de	-85
ver	-86
▁jag	-87
sk	-88
ett	-89
▁r	-90
▁M	-91
äl	-92
▁om	-93
as	-94
ol	-95
ad	-96
iv	-97
▁den	-98
▁så	-99
▁ut	-100
▁du	-101
ade	-102
▁inte	-103
em	-104
▁V	-105
▁sk	-106
▁H	-107
ion	-108
▁vi	-109
ur	-110
li	-111
▁kan	-112
are	-113
ätt	-114
▁an	-115
▁ett	-116
▁fr	-117
▁F	-118
▁A	-119
ot	-120
ta	-121
ller	-122
▁B	-123
omm	-124
▁T	-125
▁E	-126
ik	-127
ut	-128
åg	-129
lla	-130
äg	-131
▁be	-132
ort	-133
ande	-134
▁P	-135
itt	-136
▁I	-137
▁K	-138
ens	-139
▁J	-140
sta	-141
▁1	-142
▁L	-143
▁N	-144
▁upp	-145
ång	-146
het	-147
▁ö	-148
da	-149
ans	-150
för	-151
la	-152
▁komm	-153
us	-154
▁man	-155
og	-156
▁sp	-157
ent	-158
es	-159
▁ska	-160
inn	-161
▁re	-162
yck	-163
▁2	-164
▁Det	-165
▁G	-166
um	-167
▁un	-168
le	-169
▁men	-170
ak	-171
äll	-172
fter	-173
▁från	-174
▁eller	-175
art	-176
ul	-177
igt	-178
▁sam	-179
ri	-180
▁O	-181
ation	-182
llt	-183
▁se	-184
bb	-185
▁när	-186
äm	-187
▁min	-188
▁c	-189
▁tr	-190
ligt	-191
ma	-192
▁någ	-193
den	-194
..	-195
ara	-196
▁R	-197
äng	-198
▁hel	-199
yg	-200
▁C	-201
isk	-202
▁(	-203
ven	-204
dag	-205
ju	-206
▁pro	-207
sp	-208
▁gr	-209
ram	-210
ster	-211
ff	-212
▁li	-213
▁sig	-214
sl	-215
ats	-216
▁där	-217
era	-218
▁kommer	-219
arna	-220
jäl	-221
os	-222
je	-223
änd	-224
▁här	-225
▁ny	-226
▁Jag	-227
▁gör	-228
▁ha	-229
bet	-230
▁bl	-231
▁bli	-232
▁under	-233
▁kon	-234
ull	-235
ers	-236
ste	-237
ok	-238
ass	-239
und	-240
änn	-241
▁år	-242
ock	-243
▁över	-244
▁-	-245
▁efter	-246
ft	-247
▁Vi	-248
sa	-249
▁vara	-250
▁fa	-251
▁å	-252
var	-253
inns	-254
▁ä	-255
▁kr	-256
så	-257
ger	-258
ker	-259
▁fl	-260
od	-261
cka	-262
00	-263
se	-264
ick	-265
liga	-266
▁vill	-267
▁alla	-268
ina	-269
ska	-270
ycket	-271
▁U	-272
▁väl	-273
▁tid	-274
▁få	-275
arbet	-276
▁finns	-277
erna	-278
im	-279
iga	-280
ne	-281
▁nu	-282
▁allt	-283
edan	-284
orm	-285
ud	-286
▁dag	-287
ön	-288
▁and	-289
▁dig	-290
▁sl	-291
▁St	-292
opp	-293
iska	-294
ist	-295
...	-296
ell	-297
▁mycket	-298
ga	-299
▁mig	-300
sam	-301
pa	-302
▁ju	-303
▁må	-304
▁del	-305
▁ta	-306
▁bra	-307
öj	-308
lar	-309
ling	-310
▁lite	-311
▁mer	-312
▁beh	-313
ru	-314
▁pl	-315
▁han	-316
est	-317
▁er	-318
▁får	-319
ikt	-320
gen	-321
▁ock	-322
▁då	-323
▁För	-324
va	-325
ic	-326
▁kun	-327
▁w	-328
ant	-329
ost	-330
▁kv	-331
▁bara	-332
▁.	-333
▁fram	-334
ningen	-335
▁sv	-336
ligen	-337
▁också	-338
▁En	-339
ja	-340
org	-341
ningar	-342
enom	-343
▁även	-344
▁ex	-345
ser	-346
▁bil	-347
eck	-348
kar	-349
▁vid	-350
bl	-351
▁hem	-352
op	-353
▁tv	-354
yr	-355
ber	-356
▁pr	-357
▁anv	-358
▁ver	-359
▁stor	-360
▁–	-361
all	-362
▁kl	-363
mar	-364
▁hur	-365
▁In	-366
▁sex	-367
ånga	-368
ord	-369
ekt	-370
▁vil	-371
▁spel	-372
sö	-373
▁20	-374
▁din	-375
▁De	-376
ov	-377
per	-378
▁mot	-379
▁vis	-380
▁or	-381
erson	-382
kl	-383
ie	-384
▁vår	-385
▁andra	-386
▁3	-387
ir	-388
▁hö	-389
▁br	-390
▁Den	-391
dr	-392
▁sm	-393
▁ann	-394
bil	-395
▁än	-396
▁vär	-397
äst	-398
▁bör	-399
ket	-400
orr	-401
du	-402
▁arbet	-403
▁blir	-404
jer	-405
▁hon	-406
▁samt	-407
öd	-408
▁vad	-409
ott	-410
▁kom	-411
yn	-412
ex	-413
itet	-414
▁Men	-415
▁ing	-416
sen	-417
arn	-418
eg	-419
atis	-420
ress	-421
▁ser	-422
ulle	-423
ce	-424
ken	-425
del	-426
pl	-427
mer	-428
▁utan	-429
lev	-430
äs	-431
▁hade	-432
rå	-433
ilj	-434
▁person	-435
▁W	-436
▁genom	-437
ygg	-438
äd	-439
age	-440
▁själ	-441
▁oss	-442
ack	-443
▁bet	-444
ier	-445
▁"	-446
▁An	-447
ställ	-448
▁sen	-449
▁göra	-450
▁skulle	-451
öp	-452
tal	-453
▁,	-454
hol	-455
▁sin	-456
åt	-457
nad	-458
▁dess	-459
lika	-460
yd	-461
▁hitt	-462
vis	-463
äck	-464
▁många	-465
ha	-466
ug	-467
oll	-468
ägg	-469
ann	-470
riv	-471
▁fin	-472
▁någon	-473
▁mat	-474
▁olika	-475
▁ig	-476
ek	-477
ästa	-478
▁behö	-479
öl	-480
som	-481
▁201	-482
öm	-483
▁säg	-484
▁sedan	-485
iskt	-486
obb	-487
▁verk	-488
ial	-489
▁går	-490
ia	-491
lin	-492
verig	-493
enska	-494
aren	-495
▁ro	-496
▁detta	-497
holm	-498
▁något	-499
fr	-500
ang	-501
vär	-502
▁sn	-503
ark	-504
▁hand	-505
ät	-506
nings	-507
form	-508
åll	-509
etag	-510
▁all	-511
▁sätt	-512
▁barn	-513
▁ber	-514
▁5	-515
▁helt	-516
▁två	-517
▁al	-518
▁Du	-519
ef	-520
ult	-521
äk	-522
ring	-523
▁gång	-524
▁hjäl	-525
ym	-526
▁4	-527
ende	-528
gi	-529
orn	-530
äv	-531
ets	-532
▁dem	-533
▁ra	-534
▁hela	-535
ytt	-536
▁bå	-537
▁pa	-538
he	-539
▁ni	-540
▁inne	-541
jt	-542
▁själv	-543
sätt	-544
eras	-545
▁Sverig	-546
▁nya	-547
str	-548
ering	-549
sm	-550
▁on	-551
▁läng	-552
lighet	-553
ål	-554
▁le	-555
▁fick	-556
▁int	-557
ys	-558
▁vet	-559
ske	-560
åra	-561
▁Om	-562
▁gj	-563
▁pre	-564
sb	-565
▁of	-566
av	-567
tern	-568
änder	-569
▁jobb	-570
kel	-571
▁gå	-572
▁hög	-573
▁fun	-574
ockholm	-575
gr	-576
▁börj	-577
▁blev	-578
ala	-579
▁möj	-580
man	-581
▁Sk	-582
alt	-583
ilm	-584
▁liv	-585
land	-586
▁mass	-587
upp	-588
dukt	-589
▁Ä	-590
ighet	-591
▁gl	-592
dre	-593
▁”	-594
▁inom	-595
▁ma	-596
ow	-597
▁rätt	-598
▁några	-599
▁sitt	-600
▁första	-601
ec	-602
▁ch	-603
erade	-604
ts	-605
ida	-606
▁rikt	-607
ub	-608
▁denna	-609
▁fort	-610
▁kän	-611
äder	-612
sc	-613
▁sö	-614
ellan	-615
veck	-616
▁lag	-617
ativ	-618
▁ty	-619
nan	-620
ip	-621
▁per	-622
▁varit	-623
▁gratis	-624
bju	-625
▁mo	-626
ast	-627
nar	-628
kon	-629
pt	-630
▁läg	-631
ien	-632
▁först	-633
if	-634
pel	-635
▁tre	-636
▁el	-637
▁När	-638
orna	-639
oc	-640
▁företag	-641
des	-642
utom	-643
sson	-644
▁dat	-645
ote	-646
▁både	-647
▁fär	-648
▁Och	-649
▁tän	-650
▁behöver	-651
▁måste	-652
atur	-653
▁kö	-654
akt	-655
äker	-656
gar	-657
▁vikt	-658
▁våra	-659
ika	-660
▁mellan	-661
▁vin	-662
eb	-663
▁sak	-664
▁led	-665
▁19	-666
det	-667
sv	-668
änt	-669
▁stör	-670
▁annat	-671
▁ger	-672
verk	-673
▁säger	-674
▁:	-675
sten	-676
nas	-677
▁reg	-678
▁äl	-679
▁ner	-680
erar	-681
▁Nu	-682
▁kanske	-683
ända	-684
▁Sverige	-685
borg	-686
▁Här	-687
).	-688
▁eg	-689
unt	-690
▁pass	-691
▁bland	-692
erad	-693
▁tyck	-694
▁porr	-695
▁idag	-696
▁känn	-697
jän	-698
skap	-699
▁vilket	-700
▁bästa	-701
digt	-702
sh	-703
▁På	-704
▁sna	-705
▁Så	-706
atten	-707
▁hos	-708
▁slut	-709
▁använd	-710
▁plats	-711
ingen	-712
▁6	-713
▁erbju	-714
ård	-715
orde	-716
▁Un	-717
▁ly	-718
▁Med	-719
▁lång	-720
▁sina	-721
jär	-722
▁stora	-723
▁dessa	-724
takt	-725
kv	-726
red	-727
io	-728
▁innan	-729
▁akt	-730
▁fråg	-731
ös	-732
▁van	-733
tro	-734
▁kunna	-735
tra	-736
▁lig	-737
else	-738
ank	-739
▁di	-740
sök	-741
▁åt	-742
anska	-743
ej	-744
oka	-745
håll	-746
▁lär	-747
öte	-748
rum	-749
mans	-750
br	-751
▁tar	-752
äx	-753
▁ka	-754
igare	-755
▁res	-756
komm	-757
▁Ö	-758
▁alltid	-759
▁tro	-760
eter	-761
▁best	-762
jting	-763
▁lan	-764
lägg	-765
▁mitt	-766
▁männ	-767
▁dr	-768
▁lätt	-769
ust	-770
ld	-771
▁dom	-772
skar	-773
▁produkt	-774
▁par	-775
bild	-776
▁utveck	-777
▁Har	-778
▁snabb	-779
▁flera	-780
lass	-781
▁väg	-782
äller	-783
ba	-784
▁Gr	-785
▁milj	-786
▁str	-787
▁kommun	-788
scort	-789
▁hen	-790
▁änd	-791
slut	-792
▁pen	-793
yst	-794
▁we	-795
åller	-796
▁fakt	-797
par	-798
ktion	-799
ars	-800
▁säker	-801
▁ditt	-802
pro	-803
med	-804
▁varje	-805
amn	-806
▁väldigt	-807
▁Sex	-808
▁lä	-809
▁sju	-810
▁pris	-811
▁for	-812
tid	-813
▁igen	-814
iken	-815
▁kn	-816
formation	-817
etta	-818
met	-819
▁fy	-820
ades	-821
▁enkel	-822
▁nog	-823
▁kvinn	-824
gång	-825
ött	-826
mat	-827
sammans	-828
ella	-829
led	-830
▁riktigt	-831
▁ord	-832
▁Stockholm	-833
▁7	-834
ättre	-835
▁tag	-836
▁just	-837
▁vide	-838
raf	-839
▁ur	-840
me	-841
▁åter	-842
▁dina	-843
ung	-844
tr	-845
▁samma	-846
▁föl	-847
▁god	-848
uv	-849
▁bättre	-850
samhet	-851
▁bok	-852
▁mest	-853
bo	-854
▁tje	-855
▁val	-856
▁y	-857
vensk	-858
line	-859
▁&	-860
▁nät	-861
▁människ	-862
pr	-863
ors	-864
▁Att	-865
rekt	-866
lag	-867
plats	-868
slag	-869
erat	-870
▁fot	-871
tera	-872
dom	-873
▁webb	-874
årt	-875
▁ofta	-876
ppen	-877
anta	-878
▁Å	-879
olk	-880
▁land	-881
äff	-882
▁tycker	-883
▁trän	-884
▁verkligen	-885
▁gam	-886
jekt	-887
▁mål	-888
▁skriv	-889
sikt	-890
▁form	-891
idan	-892
▁intress	-893
▁veck	-894
▁8	-895
▁Detta	-896
lek	-897
▁ge	-898
▁Fr	-899
gram	-900
▁ligger	-901
▁Han	-902
▁10	-903
▁komma	-904
alm	-905
▁si	-906
▁svenska	-907
▁bak	-908
hus	-909
▁runt	-910
▁tillsammans	-911
▁skol	-912
tag	-913
000	-914
ationer	-915
uss	-916
rik	-917
▁bort	-918
kte	-919
min	-920
▁fast	-921
berg	-922
▁hitta	-923
▁lever	-924
amp	-925
▁bilder	-926
ob	-927
empel	-928
sak	-929
kom	-930
▁pol	-931
sf	-932
▁ar	-933
älla	-934
blem	-935
▁0	-936
▁fall	-937
▁fått	-938
▁fler	-939
▁hus	-940
aste	-941
▁[	-942
hai	-943
ås	-944
▁Efter	-945
▁deras	-946
▁hjälp	-947
svar	-948
▁film	-949
kr	-950
▁kontakt	-951
▁ingen	-952
▁spec	-953
ystem	-954
▁massage	-955
öst	-956
▁blog	-957
fatt	-958
nader	-959
▁sa	-960
▁kör	-961
vet	-962
ubb	-963
ämn	-964
▁enda	-965
nade	-966
iten	-967
▁gick	-968
▁grund	-969
stad	-970
▁Ch	-971
mär	-972
▁plan	-973
öt	-974
▁kost	-975
▁su	-976
ektiv	-977
ny	-978
▁information	-979
▁Ar	-980
▁eftersom	-981
bar	-982
väg	-983
men	-984
iss	-985
▁Var	-986
▁konst	-987
▁möjlighet	-988
ingar	-989
▁hör	-990
baka	-991
▁9	-992
▁te	-993
rar	-994
lem	-995
▁mina	-996
fil	-997
▁använda	-998
▁kra	-999
ater	-1000
las	-1001
by	-1002
spel	-1003
dagen	-1004
▁the	-1005
älj	-1006
▁redan	-1007
▁kli	-1008
hand	-1009
▁enkelt	-1010
ition	-1011
▁tidigare	-1012
▁exempel	-1013
drig	-1014
▁kort	-1015
▁Ett	-1016
▁köp	-1017
rakt	-1018
▁förb	-1019
åd	-1020
asin	-1021
uvud	-1022
itta	-1023
ard	-1024
▁kred	-1025
sför	-1026
▁tillbaka	-1027
▁gjort	-1028
▁Man	-1029
cent	-1030
▁natur	-1031
▁Till	-1032
▁gäller	-1033
▁tim	-1034
▁hopp	-1035
yl	-1036
▁människor	-1037
▁red	-1038
ärna	-1039
▁berätt	-1040
▁Sp	-1041
illa	-1042
▁små	-1043
▁ung	-1044
▁to	-1045
▁dejting	-1046
▁dock	-1047
sn	-1048
▁mark	-1049
skil	-1050
köp	-1051
ök	-1052
▁lika	-1053
▁aldrig	-1054
▁komp	-1055
▁kvinnor	-1056
▁Sv	-1057
far	-1058
orgon	-1059
▁Där	-1060
▁nytt	-1061
▁tiden	-1062
från	-1063
skol	-1064
▁200	-1065
ester	-1066
uter	-1067
kade	-1068
▁18	-1069
ender	-1070
▁Y	-1071
ydd	-1072
ree	-1073
▁lik	-1074
▁egen	-1075
▁kunde	-1076
▁ställ	-1077
be	-1078
ind	-1079
▁vän	-1080
els	-1081
▁försö	-1082
▁tror	-1083
▁bygg	-1084
▁hal	-1085
ap	-1086
▁annan	-1087
iker	-1088
rad	-1089
orter	-1090
gifter	-1091
▁Jo	-1092
öteborg	-1093
▁direkt	-1094
▁bor	-1095
illar	-1096
cis	-1097
▁Som	-1098
▁tog	-1099
bär	-1100
gör	-1101
går	-1102
▁hittar	-1103
▁ih	-1104
ata	-1105
ålla	-1106
▁kro	-1107
▁mus	-1108
▁läm	-1109
ings	-1110
fekt	-1111
vent	-1112
▁mindre	-1113
▁fam	-1114
▁problem	-1115
fl	-1116
▁hy	-1117
▁pengar	-1118
ultat	-1119
vs	-1120
▁escort	-1121
▁Under	-1122
anden	-1123
ian	-1124
▁hemma	-1125
istor	-1126
▁online	-1127
jus	-1128
▁tjän	-1129
res	-1130
▁kredit	-1131
äns	-1132
▁fil	-1133
iver	-1134
▁ute	-1135
▁by	-1136
bland	-1137
▁sol	-1138
inner	-1139
inna	-1140
▁id	-1141
äkt	-1142
▁|	-1143
naden	-1144
▁gärna	-1145
▁kont	-1146
▁/	-1147
rott	-1148
▁ca	-1149
olag	-1150
-1	-1151
▁15	-1152
ies	-1153
uk	-1154
olog	-1155
!!	-1156
otell	-1157
▁lå	-1158
▁väx	-1159
giv	-1160
▁sommar	-1161
▁fle	-1162
ående	-1163
alitet	-1164
rätt	-1165
rat	-1166
▁stad	-1167
hör	-1168
▁po	-1169
▁öpp	-1170
▁gjorde	-1171
alen	-1172
▁kväll	-1173
nes	-1174
▁bo	-1175
▁köpa	-1176
iet	-1177
rist	-1178
heter	-1179
▁match	-1180
andet	-1181
▁Pro	-1182
ay	-1183
▁z	-1184
ionen	-1185
▁Dess	-1186
▁dagar	-1187
▁träff	-1188
▁sy	-1189
▁tur	-1190
▁vatten	-1191
▁liten	-1192
iva	-1193
van	-1194
▁porn	-1195
▁kvar	-1196
▁huvud	-1197
),	-1198
ice	-1199
river	-1200
ons	-1201
ulla	-1202
▁bild	-1203
int	-1204
ära	-1205
ips	-1206
▁typ	-1207
eta	-1208
▁extra	-1209
ong	-1210
dan	-1211
▁senaste	-1212
▁so	-1213
▁Mar	-1214
▁ändå	-1215
ler	-1216
▁faktiskt	-1217
talet	-1218
ivit	-1219
▁saker	-1220
▁svar	-1221
▁kall	-1222
ix	-1223
jur	-1224
yk	-1225
▁syn	-1226
uro	-1227
ite	-1228
▁im	-1229
antast	-1230
▁via	-1231
▁områ	-1232
ekn	-1233
icka	-1234
enter	-1235
▁större	-1236
öv	-1237
kor	-1238
▁Kan	-1239
▁Ut	-1240
▁em	-1241
▁finans	-1242
ess	-1243
spl	-1244
bart	-1245
ppa	-1246
cept	-1247
▁näst	-1248
arl	-1249
▁:)	-1250
ont	-1251
▁häl	-1252
▁stort	-1253
ationen	-1254
heten	-1255
▁rum	-1256
▁ön	-1257
▁står	-1258
▁rör	-1259
▁håll	-1260
ue	-1261
▁start	-1262
amma	-1263
ib	-1264
▁tjejer	-1265
▁län	-1266
eller	-1267
äster	-1268
▁vack	-1269
▁ad	-1270
edag	-1271
▁hans	-1272
▁gen	-1273
▁värld	-1274
net	-1275
ct	-1276
▁skall	-1277
▁förs	-1278
▁medlem	-1279
▁rel	-1280
▁känner	-1281
lden	-1282
20	-1283
ög	-1284
▁stockholm	-1285
▁förv	-1286
dat	-1287
lad	-1288
yt	-1289
ke	-1290
idigt	-1291
ore	-1292
▁bru	-1293
▁Tr	-1294
▁fina	-1295
▁Br	-1296
▁personer	-1297
skort	-1298
our	-1299
▁svensk	-1300
rev	-1301
anis	-1302
▁intern	-1303
▁länge	-1304
ternativ	-1305
▁vårt	-1306
konom	-1307
ukt	-1308
▁eff	-1309
▁precis	-1310
▁Hon	-1311
▁honom	-1312
idor	-1313
▁dagen	-1314
ister	-1315
▁säga	-1316
▁innebär	-1317
▁haft	-1318
▁längre	-1319
▁hund	-1320
ras	-1321
ign	-1322
stället	-1323
▁blivit	-1324
▁koll	-1325
▁känns	-1326
▁folk	-1327
ygga	-1328
▁namn	-1329
▁Re	-1330
ateg	-1331
unn	-1332
▁verksamhet	-1333
▁klass	-1334
fall	-1335
ou	-1336
ämt	-1337
▁börjar	-1338
alog	-1339
han	-1340
▁sjuk	-1341
▁fantast	-1342
▁erbjuder	-1343
▁ganska	-1344
sida	-1345
ux	-1346
▁thai	-1347
ocial	-1348
oner	-1349
▁Då	-1350
▁utbild	-1351
▁inför	-1352
lingen	-1353
▁därför	-1354
▁Ja	-1355
▁använder	-1356
▁kul	-1357
ppar	-1358
ert	-1359
▁...	-1360
▁Är	-1361
▁bill	-1362
▁Al	-1363
▁fortsätt	-1364
▁äldre	-1365
▁jul	-1366
ab	-1367
▁Vis	-1368
ligare	-1369
▁visar	-1370
▁män	-1371
▁betal	-1372
ostad	-1373
▁part	-1374
▁Gratis	-1375
änner	-1376
satt	-1377
▁loka	-1378
ecka	-1379
drar	-1380
▁Vad	-1381
▁inv	-1382
film	-1383
drag	-1384
▁nästan	-1385
▁håller	-1386
ått	-1387
▁stud	-1388
up	-1389
▁Alla	-1390
elef	-1391
ännu	-1392
▁Sam	-1393
▁Idag	-1394
pper	-1395
elsen	-1396
ider	-1397
0-	-1398
▁ännu	-1399
▁äg	-1400
▁enligt	-1401
▁x	-1402
▁video	-1403
▁fem	-1404
fär	-1405
ten	-1406
▁skön	-1407
▁gott	-1408
▁spela	-1409
ioner	-1410
farande	-1411
▁Hur	-1412
▁Ma	-1413
▁org	-1414
iner	-1415
▁Upp	-1416
▁familj	-1417
ena	-1418
▁inget	-1419
lic	-1420
▁söker	-1421
eln	-1422
▁läsa	-1423
ädd	-1424
▁#	-1425
▁program	-1426
▁öv	-1427
bara	-1428
▁ned	-1429
mass	-1430
▁12	-1431
▁största	-1432
▁hotell	-1433
▁projekt	-1434
▁art	-1435
ograf	-1436
▁färg	-1437
▁full	-1438
▁ihop	-1439
▁ytt	-1440
istr	-1441
▁möjligt	-1442
▁kron	-1443
▁produkter	-1444
▁jätt	-1445
▁henne	-1446
▁tal	-1447
▁jäm	-1448
ari	-1449
▁fel	-1450
▁tekn	-1451
▁behand	-1452
▁bel	-1453
▁pla	-1454
▁nätet	-1455
iter	-1456
skriv	-1457
ånd	-1458
vänd	-1459
▁styr	-1460
▁mär	-1461
▁vidare	-1462
under	-1463
▁ekonom	-1464
any	-1465
▁flesta	-1466
▁resultat	-1467
▁ko	-1468
fäll	-1469
▁snabbt	-1470
▁gamla	-1471
▁Läs	-1472
ever	-1473
▁go	-1474
häll	-1475
▁välja	-1476
▁perfekt	-1477
äss	-1478
▁förm	-1479
ron	-1480
▁disk	-1481
▁blogg	-1482
▁svårt	-1483
▁histor	-1484
▁tex	-1485
ps	-1486
▁istället	-1487
▁nästa	-1488
▁sh	-1489
▁samtidigt	-1490
▁100	-1491
▁fortfarande	-1492
▁mö	-1493
lick	-1494
edel	-1495
nat	-1496
▁erf	-1497
▁bad	-1498
▁förl	-1499
spro	-1500
cess	-1501
gel	-1502
ffär	-1503
asino	-1504
▁sj	-1505
ner	-1506
unkt	-1507
ond	-1508
▁dra	-1509
▁hennes	-1510
▁flytt	-1511
ins	-1512
änk	-1513
▁skapa	-1514
erial	-1515
▁aktiv	-1516
▁minuter	-1517
▁passar	-1518
▁Se	-1519
▁hålla	-1520
▁behov	-1521
sol	-1522
▁30	-1523
▁täv	-1524
etter	-1525
▁alternativ	-1526
▁sista	-1527
öjd	-1528
ännande	-1529
of	-1530
ften	-1531
▁viktigt	-1532
▁sär	-1533
▁året	-1534
ine	-1535
▁världen	-1536
one	-1537
▁låg	-1538
▁th	-1539
▁but	-1540
▁grupp	-1541
föra	-1542
▁ste	-1543
▁ljus	-1544
▁Bl	-1545
ral	-1546
▁ja	-1547
▁gillar	-1548
▁dessutom	-1549
its	-1550
▁flyg	-1551
▁lu	-1552
band	-1553
igheter	-1554
sin	-1555
▁webbplats	-1556
ild	-1557
ita	-1558
▁stöd	-1559
▁off	-1560
▁handlar	-1561
spir	-1562
rav	-1563
▁började	-1564
▁lö	-1565
▁Ny	-1566
▁samarbet	-1567
urs	-1568
▁Sen	-1569
▁nära	-1570
▁mis	-1571
oder	-1572
kan	-1573
saker	-1574
▁endast	-1575
port	-1576
▁ol	-1577
▁vecka	-1578
▁vilken	-1579
ultur	-1580
link	-1581
örer	-1582
▁pop	-1583
almö	-1584
▁nag	-1585
ren	-1586
▁wid	-1587
▁inlägg	-1588
massage	-1589
uld	-1590
okus	-1591
▁hjälpa	-1592
▁kär	-1593
▁Kon	-1594
▁frågor	-1595
▁funktion	-1596
vice	-1597
ument	-1598
håller	-1599
pe	-1600
▁spr	-1601
▁helst	-1602
▁mobil	-1603
▁hjär	-1604
▁sidan	-1605
mark	-1606
ember	-1607
▁des	-1608
elefon	-1609
över	-1610
val	-1611
▁Min	-1612
▁vilka	-1613
pass	-1614
▁fyra	-1615
▁Göteborg	-1616
▁såg	-1617
iella	-1618
▁ind	-1619
▁ant	-1620
▁free	-1621
▁gånger	-1622
▁senare	-1623
zny	-1624
▁dla	-1625
anych	-1626
▁egna	-1627
▁hoppas	-1628
owanych	-1629
oczny	-1630
▁zalog	-1631
▁widoczny	-1632
▁zalogowanych	-1633
nen	-1634
▁25	-1635
▁alltså	-1636
▁klar	-1637
▁co	-1638
▁hår	-1639
pen	-1640
▁beslut	-1641
ora	-1642
▁funger	-1643
▁mode	-1644
▁arbete	-1645
▁The	-1646
▁skr	-1647
klart	-1648
▁snart	-1649
▁Porr	-1650
andra	-1651
vor	-1652
agen	-1653
gård	-1654
▁17	-1655
▁Vill	-1656
▁timmar	-1657
▁börja	-1658
ummer	-1659
cker	-1660
▁erfaren	-1661
▁kunder	-1662
ide	-1663
▁minst	-1664
uta	-1665
▁själva	-1666
▁gar	-1667
▁far	-1668
▁sett	-1669
mäl	-1670
▁vissa	-1671
▁star	-1672
▁16	-1673
kort	-1674
▁kvalitet	-1675
▁ren	-1676
▁vanligt	-1677
▁veckan	-1678
▁Denna	-1679
sett	-1680
▁tillg	-1681
gon	-1682
sch	-1683
verka	-1684
▁cent	-1685
▁besök	-1686
▁trev	-1687
▁2018	-1688
▁kronor	-1689
fri	-1690
llen	-1691
▁kring	-1692
juk	-1693
▁emot	-1694
gre	-1695
▁ban	-1696
▁11	-1697
köping	-1698
▁slä	-1699
▁klart	-1700
ivet	-1701
▁14	-1702
▁tack	-1703
▁social	-1704
▁ansvar	-1705
SA	-1706
ity	-1707
▁särskil	-1708
bin	-1709
▁ytter	-1710
▁främ	-1711
▁Av	-1712
ish	-1713
▁följ	-1714
yss	-1715
ningarna	-1716
rade	-1717
▁bid	-1718
▁före	-1719
ator	-1720
itu	-1721
▁tips	-1722
▁lycka	-1723
....	-1724
ret	-1725
lan	-1726
▁pub	-1727
entligen	-1728
ht	-1729
fin	-1730
▁samman	-1731
▁met	-1732
lingar	-1733
▁lju	-1734
▁dating	-1735
▁bety	-1736
▁glad	-1737
▁mar	-1738
▁gången	-1739
▁X	-1740
▁låt	-1741
ge	-1742
▁lös	-1743
bud	-1744
▁lägga	-1745
ift	-1746
▁satt	-1747
stånd	-1748
▁Le	-1749
end	-1750
anter	-1751
▁arbetar	-1752
▁tem	-1753
▁vänt	-1754
▁ener	-1755
▁halv	-1756
▁tänka	-1757
▁Be	-1758
▁ab	-1759
▁räk	-1760
ifrån	-1761
▁brukar	-1762
▁skriva	-1763
▁Vid	-1764
ium	-1765
▁procent	-1766
▁Ska	-1767
▁risk	-1768
▁erot	-1769
▁Allt	-1770
▁Z	-1771
▁samhäll	-1772
▁borde	-1773
▁tills	-1774
▁·	-1775
andel	-1776
▁tyd	-1777
unden	-1778
lade	-1779
batt	-1780
gru	-1781
▁sitter	-1782
▁Svenska	-1783
▁gått	-1784
▁Th	-1785
▁ibland	-1786
▁Ber	-1787
elser	-1788
▁popul	-1789
▁förut	-1790
uella	-1791
mt	-1792
▁50	-1793
▁morgon	-1794
▁sc	-1795
▁varför	-1796
ork	-1797
anc	-1798
staur	-1799
unda	-1800
ställning	-1801
▁000	-1802
ivt	-1803
▁delar	-1804
▁bed	-1805
▁Hel	-1806
nande	-1807
amer	-1808
▁rad	-1809
iellt	-1810
fråg	-1811
▁Sveriges	-1812
▁priv	-1813
▁topp	-1814
▁pos	-1815
ive	-1816
▁forsk	-1817
dags	-1818
uff	-1819
▁Ha	-1820
ängd	-1821
atta	-1822
▁organis	-1823
▁erbjud	-1824
splats	-1825
jö	-1826
▁polit	-1827
▁13	-1828
▁fokus	-1829
▁föränd	-1830
▁skriver	-1831
com	-1832
▁smak	-1833
lat	-1834
rikt	-1835
ogen	-1836
▁långt	-1837
▁kna	-1838
▁ville	-1839
▁älskar	-1840
önster	-1841
▁Ex	-1842
▁början	-1843
aket	-1844
▁träd	-1845
▁sön	-1846
ube	-1847
▁inspir	-1848
ivers	-1849
iz	-1850
▁lad	-1851
tar	-1852
▁verkar	-1853
▁va	-1854
▁sag	-1855
▁skicka	-1856
råk	-1857
ris	-1858
klar	-1859
ynd	-1860
▁kund	-1861
amm	-1862
get	-1863
emang	-1864
▁bäst	-1865
▁bef	-1866
▁betala	-1867
▁hjälper	-1868
als	-1869
lö	-1870
".	-1871
▁maj	-1872
▁Per	-1873
ocka	-1874
▁moder	-1875
▁ovan	-1876
▁händer	-1877
▁material	-1878
▁tillfäll	-1879
▁livet	-1880
▁Även	-1881
▁Euro	-1882
ölj	-1883
▁utveckling	-1884
boll	-1885
fer	-1886
▁kor	-1887
▁anal	-1888
▁ob	-1889
▁kvinna	-1890
tem	-1891
kläder	-1892
▁sem	-1893
▁ens	-1894
▁egentligen	-1895
▁roligt	-1896
sättning	-1897
sst	-1898
ansk	-1899
▁affär	-1900
▁sida	-1901
▁recept	-1902
otek	-1903
▁Fl	-1904
utt	-1905
▁dags	-1906
▁viktiga	-1907
én	-1908
▁känna	-1909
▁fint	-1910
▁miljö	-1911
▁stat	-1912
”.	-1913
förs	-1914
agn	-1915
▁träning	-1916
▁musik	-1917
bygg	-1918
ivå	-1919
▁fören	-1920
▁presen	-1921
▁Escort	-1922
▁bred	-1923
▁rekomm	-1924
tre	-1925
▁lilla	-1926
oende	-1927
▁spännande	-1928
▁kopp	-1929
▁gre	-1930
▁trans	-1931
ew	-1932
▁Sw	-1933
▁visa	-1934
▁kontro	-1935
▁utt	-1936
▁lug	-1937
▁favor	-1938
▁besö	-1939
ategor	-1940
▁fann	-1941
▁Sedan	-1942
▁mid	-1943
▁medan	-1944
ruk	-1945
▁inter	-1946
ullt	-1947
▁åka	-1948
▁trots	-1949
▁me	-1950
▁stan	-1951
kla	-1952
nal	-1953
▁Kn	-1954
▁skolan	-1955
▁Ty	-1956
▁föräl	-1957
▁antal	-1958
▁Vil	-1959
▁;	-1960
▁sådan	-1961
kta	-1962
orer	-1963
▁marknad	-1964
▁bas	-1965
ström	-1966
ink	-1967
▁veta	-1968
▁kommit	-1969
slan	-1970
▁igenom	-1971
skin	-1972
qu	-1973
män	-1974
märk	-1975
▁kläder	-1976
▁arbets	-1977
sats	-1978
▁mil	-1979
sla	-1980
ev	-1981
▁ag	-1982
sidan	-1983
▁vux	-1984
▁inga	-1985
gift	-1986
▁tot	-1987
rukt	-1988
▁tjej	-1989
rag	-1990
▁und	-1991
▁utanför	-1992
enskap	-1993
▁is	-1994
▁design	-1995
▁Inte	-1996
▁la	-1997
ER	-1998
▁mör	-1999
▁system	-2000
▁säkerhet	-2001
ital	-2002
▁filmer	-2003
▁tagit	-2004
▁upplev	-2005
skott	-2006
▁otro	-2007
▁AB	-2008
▁kons	-2009
▁öka	-2010
▁ögon	-2011
▁effektiv	-2012
mal	-2013
usk	-2014
▁fungerar	-2015
▁eskort	-2016
▁kraft	-2017
▁vänner	-2018
gat	-2019
oss	-2020
▁chans	-2021
▁mamma	-2022
▁Tro	-2023
omen	-2024
chen	-2025
äcker	-2026
iden	-2027
kn	-2028
▁Kv	-2029
öcker	-2030
▁Väl	-2031
▁månader	-2032
▁massa	-2033
olv	-2034
30	-2035
jör	-2036
▁övr	-2037
▁säkert	-2038
avsett	-2039
▁ring	-2040
▁läs	-2041
dar	-2042
▁titt	-2043
▁spelar	-2044
-0	-2045
▁framtid	-2046
▁sätta	-2047
▁förbätt	-2048
▁telefon	-2049
▁förra	-2050
▁prakt	-2051
co	-2052
▁säl	-2053
bok	-2054
lik	-2055
▁Sh	-2056
ssk	-2057
▁bostad	-2058
snitt	-2059
▁bestäm	-2060
hl	-2061
ran	-2062
▁framför	-2063
▁innehåller	-2064
▁varandra	-2065
gär	-2066
jut	-2067
▁gener	-2068
▁rö	-2069
▁veckor	-2070
värr	-2071
▁Genom	-2072
▁tillgäng	-2073
▁båda	-2074
uck	-2075
▁test	-2076
▁svart	-2077
ringar	-2078
▁vanliga	-2079
▁lära	-2080
▁Fa	-2081
▁Komm	-2082
▁hän	-2083
▁används	-2084
ure	-2085
uder	-2086
▁häng	-2087
rader	-2088
▁Mass	-2089
ille	-2090
▁Någ	-2091
▁säs	-2092
▁lör	-2093
▁fanns	-2094
ober	-2095
bund	-2096
▁häst	-2097
▁elever	-2098
▁event	-2099
▁Or	-2100
äcka	-2101
▁slag	-2102
err	-2103
bel	-2104
isen	-2105
▁kunskap	-2106
matör	-2107
▁heller	-2108
▁titta	-2109
itut	-2110
▁häls	-2111
ode	-2112
▁kräv	-2113
▁väljer	-2114
duc	-2115
▁lägen	-2116
uell	-2117
▁Dessa	-2118
ält	-2119
▁nov	-2120
ith	-2121
yll	-2122
▁ba	-2123
▁alls	-2124
▁Ad	-2125
▁grön	-2126
▁fisk	-2127
ellt	-2128
▁et	-2129
samma	-2130
▁“	-2131
▁vägen	-2132
▁sagt	-2133
rot	-2134
▁rekommender	-2135
▁restaur	-2136
▁igår	-2137
▁tänker	-2138
▁Bo	-2139
kommen	-2140
▁artik	-2141
irl	-2142
▁super	-2143
▁Porn	-2144
▁fredag	-2145
▁mon	-2146
▁äta	-2147
▁Ta	-2148
▁skydd	-2149
▁Dan	-2150
▁gem	-2151
▁lin	-2152
▁Fin	-2153
▁vit	-2154
ban	-2155
▁indiv	-2156
nt	-2157
▁cir	-2158
eri	-2159
stitut	-2160
▁ål	-2161
ko	-2162
▁försöka	-2163
▁resp	-2164
▁ytterligare	-2165
▁Dessutom	-2166
▁am	-2167
▁unga	-2168
▁bon	-2169
▁stil	-2170
▁djur	-2171
▁nedan	-2172
▁goda	-2173
▁rapp	-2174
▁särskilt	-2175
▁at	-2176
▁Johan	-2177
▁Sa	-2178
▁skap	-2179
▁igång	-2180
▁24	-2181
ension	-2182
▁erfarenhet	-2183
▁All	-2184
▁ifrån	-2185
▁bju	-2186
lex	-2187
for	-2188
▁uppt	-2189
▁mån	-2190
▁skär	-2191
▁uppdat	-2192
▁Pa	-2193
▁2017	-2194
▁vackra	-2195
▁jobbet	-2196
åk	-2197
plan	-2198
▁månad	-2199
ykel	-2200
reg	-2201
▁aktivitet	-2202
uden	-2203
▁personliga	-2204
▁kombin	-2205
rafik	-2206
unds	-2207
gag	-2208
▁kur	-2209
▁kultur	-2210
▁pat	-2211
åga	-2212
tering	-2213
▁tan	-2214
▁driv	-2215
▁resa	-2216
▁log	-2217
▁utman	-2218
▁prat	-2219
▁rik	-2220
juta	-2221
▁Tack	-2222
▁registr	-2223
▁bakom	-2224
▁casino	-2225
skor	-2226
▁Sm	-2227
▁gym	-2228
▁(1	-2229
bord	-2230
▁sats	-2231
▁krav	-2232
fo	-2233
▁kolla	-2234
▁mm	-2235
öna	-2236
▁Svensk	-2237
delar	-2238
▁cm	-2239
uni	-2240
▁ton	-2241
▁Ander	-2242
▁ac	-2243
ey	-2244
▁ungdom	-2245
rust	-2246
▁heter	-2247
skatt	-2248
åta	-2249
väl	-2250
iversitet	-2251
▁jämför	-2252
och	-2253
licka	-2254
▁USA	-2255
ktyg	-2256
efär	-2257
itter	-2258
ärt	-2259
but	-2260
▁kropp	-2261
▁råd	-2262
varande	-2263
▁do	-2264
▁bi	-2265
▁ham	-2266
▁Sl	-2267
▁sing	-2268
radition	-2269
▁rep	-2270
▁app	-2271
▁följa	-2272
▁utom	-2273
kväll	-2274
▁Thai	-2275
▁sort	-2276
verket	-2277
▁bal	-2278
▁jobba	-2279
▁fri	-2280
50	-2281
▁lokal	-2282
▁detal	-2283
äver	-2284
▁området	-2285
▁lyss	-2286
▁dri	-2287
▁högre	-2288
jöl	-2289
▁Vår	-2290
verkar	-2291
▁ingår	-2292
ph	-2293
▁internet	-2294
▁utbildning	-2295
ate	-2296
spr	-2297
▁skill	-2298
▁tjänster	-2299
till	-2300
▁skönt	-2301
terna	-2302
▁Lin	-2303
▁ben	-2304
örj	-2305
▁dec	-2306
▁norm	-2307
▁miljoner	-2308
inne	-2309
bolag	-2310
jejer	-2311
filmer	-2312
▁jobbar	-2313
▁tryck	-2314
▁vård	-2315
▁dy	-2316
▁knull	-2317
öll	-2318
▁arbeta	-2319
▁lyck	-2320
▁El	-2321
▁barnen	-2322
▁Kl	-2323
▁fran	-2324
skolan	-2325
styr	-2326
▁Ser	-2327
väx	-2328
▁Många	-2329
▁service	-2330
▁prov	-2331
pan	-2332
▁special	-2333
enn	-2334
▁Malmö	-2335
▁fix	-2336
▁dit	-2337
▁energi	-2338
▁him	-2339
lös	-2340
▁åren	-2341
sala	-2342
▁fråga	-2343
▁inkl	-2344
▁spelare	-2345
entar	-2346
▁kar	-2347
▁Stor	-2348
EN	-2349
ern	-2350
▁hemsida	-2351
ycka	-2352
yrk	-2353
raft	-2354
ton	-2355
▁näm	-2356
värd	-2357
▁kal	-2358
▁mys	-2359
▁skick	-2360
▁tra	-2361
▁On	-2362
▁Eller	-2363
▁pres	-2364
▁lån	-2365
▁tom	-2366
efter	-2367
▁göteborg	-2368
▁dröm	-2369
▁snygg	-2370
book	-2371
▁godk	-2372
▁posit	-2373
lands	-2374
öder	-2375
-2	-2376
▁avslut	-2377
ve	-2378
otten	-2379
▁helgen	-2380
▁medel	-2381
▁uppdrag	-2382
läg	-2383
▁privat	-2384
▁Res	-2385
▁klubb	-2386
▁utmär	-2387
▁glas	-2388
▁användas	-2389
▁funder	-2390
...]	-2391
▁säng	-2392
▁trött	-2393
▁säll	-2394
▁Ste	-2395
ich	-2396
äft	-2397
▁tank	-2398
ferens	-2399
arnas	-2400
lack	-2401
▁anmäl	-2402
▁berättar	-2403
▁otroligt	-2404
▁post	-2405
arm	-2406
▁består	-2407
▁Karl	-2408
kur	-2409
ledning	-2410
▁boken	-2411
▁ör	-2412
▁års	-2413
rådet	-2414
,5	-2415
ryck	-2416
▁speciellt	-2417
▁bär	-2418
▁färd	-2419
▁förstå	-2420
▁försöker	-2421
▁sök	-2422
▁eget	-2423
▁jord	-2424
.00	-2425
▁vem	-2426
▁mag	-2427
ach	-2428
sidor	-2429
▁klock	-2430
▁bilden	-2431
▁pe	-2432
▁thaimassage	-2433
▁ok	-2434
▁fi	-2435
▁Gu	-2436
uppgifter	-2437
▁åkte	-2438
out	-2439
//	-2440
▁sexiga	-2441
vård	-2442
▁rå	-2443
aken	-2444
▁förh	-2445
unch	-2446
▁fest	-2447
af	-2448
ativa	-2449
betal	-2450
▁idé	-2451
▁gu	-2452
äkring	-2453
erande	-2454
▁omfatt	-2455
part	-2456
▁lön	-2457
▁lek	-2458
▁stra	-2459
▁situ	-2460
▁kroppen	-2461
ogna	-2462
syk	-2463
▁vatt	-2464
▁EU	-2465
terar	-2466
▁Kom	-2467
ugg	-2468
▁dju	-2469
▁anpass	-2470
▁hot	-2471
▁knapp	-2472
10	-2473
▁landet	-2474
▁tänkte	-2475
▁uppf	-2476
▁behövs	-2477
▁träffa	-2478
företag	-2479
▁steg	-2480
öter	-2481
mi	-2482
▁plac	-2483
▁död	-2484
▁tred	-2485
▁pri	-2486
▁personal	-2487
potek	-2488
eden	-2489
skan	-2490
▁Hej	-2491
eställ	-2492
deles	-2493
▁blå	-2494
▁Mo	-2495
▁värde	-2496
uellt	-2497
öja	-2498
▁40	-2499
▁höst	-2500
▁utför	-2501
mare	-2502
▁tradition	-2503
▁stol	-2504
fess	-2505
▁bit	-2506
aga	-2507
▁favorit	-2508
▁vä	-2509
▁liksom	-2510
▁internation	-2511
▁xx	-2512
▁ungefär	-2513
ds	-2514
://	-2515
▁Massage	-2516
pet	-2517
▁199	-2518
▁sli	-2519
ly	-2520
▁text	-2521
bro	-2522
▁rabatt	-2523
▁stund	-2524
▁sker	-2525
▁knulla	-2526
ligtvis	-2527
ake	-2528
po	-2529
▁fortsätta	-2530
ämp	-2531
vall	-2532
▁oftast	-2533
ägen	-2534
▁fyll	-2535
▁2016	-2536
ongen	-2537
ash	-2538
▁meter	-2539
utveck	-2540
ersätt	-2541
▁mor	-2542
emot	-2543
una	-2544
tes	-2545
▁bolag	-2546
▁Bil	-2547
▁sov	-2548
▁absol	-2549
sdag	-2550
▁världens	-2551
tjän	-2552
stan	-2553
▁ej	-2554
▁läk	-2555
▁erbjuda	-2556
▁Äl	-2557
▁Sn	-2558
▁priser	-2559
▁bygga	-2560
jen	-2561
ärer	-2562
▁låter	-2563
gående	-2564
vin	-2565
▁natt	-2566
▁Intern	-2567
▁Te	-2568
▁public	-2569
▁allmän	-2570
▁Ni	-2571
järn	-2572
▁stå	-2573
▁förslag	-2574
AR	-2575
▁bek	-2576
▁[...]	-2577
▁Nord	-2578
▁vilja	-2579
dde	-2580
▁dro	-2581
▁Co	-2582
räck	-2583
▁Därför	-2584
▁dans	-2585
▁roll	-2586
▁kontakta	-2587
skydd	-2588
▁Fot	-2589
▁Vide	-2590
rym	-2591
dering	-2592
ight	-2593
▁bud	-2594
▁dör	-2595
▁färger	-2596
use	-2597
iering	-2598
▁anställ	-2599
▁försv	-2600
▁slutet	-2601
▁21	-2602
▁htt	-2603
▁deltag	-2604
▁betyder	-2605
cebook	-2606
▁kval	-2607
▁möte	-2608
▁Su	-2609
ions	-2610
▁Em	-2611
▁miss	-2612
▁kvällen	-2613
sel	-2614
▁poäng	-2615
her	-2616
▁teck	-2617
okrat	-2618
▁Go	-2619
▁typer	-2620
▁sommaren	-2621
▁krävs	-2622
▁Kanske	-2623
▁effekt	-2624
▁tvätt	-2625
▁alldeles	-2626
gården	-2627
isar	-2628
▁22	-2629
eringen	-2630
pris	-2631
▁uppgifter	-2632
delse	-2633
▁kaff	-2634
▁lämna	-2635
olf	-2636
nam	-2637
eder	-2638
jor	-2639
▁gemens	-2640
fritt	-2641
vid	-2642
▁massor	-2643
IN	-2644
på	-2645
▁länder	-2646
▁La	-2647
▁bröst	-2648
▁blomm	-2649
▁Hem	-2650
fa	-2651
▁stäm	-2652
▁spar	-2653
ogg	-2654
▁Just	-2655
▁Ro	-2656
stid	-2657
ry	-2658
ugust	-2659
▁sån	-2660
▁Pol	-2661
ism	-2662
▁gammal	-2663
▁glöm	-2664
atch	-2665
person	-2666
▁dubb	-2667
▁juni	-2668
▁semester	-2669
▁behöva	-2670
▁trygg	-2671
▁Från	-2672
cc	-2673
▁lo	-2674
fta	-2675
ptem	-2676
▁tillgång	-2677
▁genomför	-2678
ständ	-2679
▁bilen	-2680
iment	-2681
▁TV	-2682
ump	-2683
▁ek	-2684
▁you	-2685
▁okt	-2686
ptember	-2687
▁samarbete	-2688
iel	-2689
▁kompl	-2690
▁nöd	-2691
▁kostnad	-2692
▁skad	-2693
▁jan	-2694
▁xxx	-2695
▁vart	-2696
▁lev	-2697
vik	-2698
▁skatt	-2699
▁liknande	-2700
sor	-2701
▁böcker	-2702
▁sur	-2703
etar	-2704
otter	-2705
len	-2706
▁Par	-2707
ffa	-2708
▁hud	-2709
▁kärlek	-2710
▁innehåll	-2711
▁Köp	-2712
▁fortsätter	-2713
igheten	-2714
▁köra	-2715
iera	-2716
leksaker	-2717
▁dejtingsa	-2718
▁skapar	-2719
▁sta	-2720
stol	-2721
▁medlemmar	-2722
vå	-2723
▁gav	-2724
AN	-2725
▁reger	-2726
over	-2727
skola	-2728
mor	-2729
▁historia	-2730
▁For	-2731
▁oavsett	-2732
▁Free	-2733
▁Mer	-2734
▁SE	-2735
icin	-2736
▁tor	-2737
▁lägger	-2738
akna	-2739
öts	-2740
▁finnas	-2741
▁beroende	-2742
punkt	-2743
”,	-2744
utbild	-2745
ykt	-2746
▁Vär	-2747
▁njuta	-2748
▁frukt	-2749
jan	-2750
▁fördel	-2751
▁leverant	-2752
▁haha	-2753
kas	-2754
▁företaget	-2755
▁tyckte	-2756
▁ålder	-2757
arbete	-2758
▁minska	-2759
onser	-2760
▁intressant	-2761
▁iväg	-2762
▁Hen	-2763
▁pot	-2764
▁stark	-2765
▁fatt	-2766
▁Dag	-2767
▁invester	-2768
▁såd	-2769
▁butik	-2770
▁ämn	-2771
▁psyk	-2772
▁vardag	-2773
▁ga	-2774
samt	-2775
ycken	-2776
▁beskriv	-2777
▁ass	-2778
▁exempelvis	-2779
▁långa	-2780
▁yn	-2781
▁universitet	-2782
▁absolut	-2783
jter	-2784
medel	-2785
▁försälj	-2786
huset	-2787
▁föd	-2788
▁fotboll	-2789
komst	-2790
▁samband	-2791
▁apr	-2792
ations	-2793
▁kap	-2794
ca	-2795
▁hjärt	-2796
",	-2797
dra	-2798
ho	-2799
▁Norr	-2800
▁Ol	-2801
hem	-2802
▁process	-2803
▁Eftersom	-2804
▁tredje	-2805
▁arbetet	-2806
5.	-2807
▁engel	-2808
▁cirka	-2809
▁våg	-2810
▁nämligen	-2811
▁sw	-2812
▁stand	-2813
▁bank	-2814
▁press	-2815
nytt	-2816
ativt	-2817
▁såsom	-2818
▁Q	-2819
201	-2820
▁Öster	-2821
▁Bra	-2822
▁scen	-2823
▁tio	-2824
▁sport	-2825
▁annars	-2826
bur	-2827
▁intresse	-2828
▁engag	-2829
▁utveckla	-2830
▁sch	-2831
stri	-2832
▁november	-2833
▁fotograf	-2834
▁Enligt	-2835
ila	-2836
stag	-2837
▁Reg	-2838
▁söka	-2839
▁gläd	-2840
ygger	-2841
▁ansikt	-2842
▁viktig	-2843
▁årets	-2844
iens	-2845
okument	-2846
▁båt	-2847
▁svår	-2848
gl	-2849
▁åker	-2850
▁kamp	-2851
▁vare	-2852
▁We	-2853
▁ter	-2854
▁Själ	-2855
▁År	-2856
▁server	-2857
kring	-2858
▁ljud	-2859
änta	-2860
▁delen	-2861
▁besk	-2862
▁öppna	-2863
▁menar	-2864
▁sitta	-2865
▁nation	-2866
2.	-2867
ordon	-2868
gräns	-2869
▁regel	-2870
sav	-2871
verige	-2872
▁ersätt	-2873
handling	-2874
▁=	-2875
▁finansiella	-2876
▁sälj	-2877
▁höra	-2878
blad	-2879
▁förvänt	-2880
▁underkläder	-2881
▁Sc	-2882
▁oro	-2883
▁bekv	-2884
▁with	-2885
▁följer	-2886
åde	-2887
produkt	-2888
▁Fast	-2889
▁Gl	-2890
▁insta	-2891
▁;)	-2892
▁kommentar	-2893
▁stäng	-2894
förande	-2895
alet	-2896
▁videos	-2897
▁mars	-2898
▁he	-2899
orl	-2900
▁as	-2901
ias	-2902
▁löp	-2903
unnit	-2904
▁sym	-2905
▁skog	-2906
▁börjat	-2907
▁nivå	-2908
▁flick	-2909
▁släpp	-2910
▁kräver	-2911
merik	-2912
▁kök	-2913
▁teknik	-2914
▁tänkt	-2915
▁betyd	-2916
aler	-2917
▁stod	-2918
▁Sol	-2919
▁sil	-2920
▁Hopp	-2921
▁vinter	-2922
bilder	-2923
▁klara	-2924
▁bonus	-2925
▁nöjd	-2926
▁röd	-2927
ernas	-2928
▁mg	-2929
▁fullt	-2930
ement	-2931
▁Erot	-2932
▁därmed	-2933
yra	-2934
▁möjligheter	-2935
▁sten	-2936
▁lärare	-2937
▁Post	-2938
▁lov	-2939
▁dagens	-2940
▁utbud	-2941
står	-2942
rör	-2943
dejting	-2944
ruktur	-2945
▁23	-2946
tor	-2947
▁profess	-2948
mid	-2949
▁behandling	-2950
za	-2951
▁fys	-2952
▁kol	-2953
▁förstår	-2954
▁buss	-2955
▁Ver	-2956
▁september	-2957
▁klockan	-2958
sex	-2959
stans	-2960
▁litet	-2961
OR	-2962
▁Jon	-2963
▁platser	-2964
▁defin	-2965
▁väntar	-2966
råd	-2967
▁familjen	-2968
▁oktober	-2969
iat	-2970
okies	-2971
färg	-2972
▁Fred	-2973
uts	-2974
rip	-2975
▁tävling	-2976
▁önsk	-2977
▁no	-2978
▁allra	-2979
▁dator	-2980
▁helg	-2981
▁prata	-2982
▁Pre	-2983
▁framgång	-2984
▁skrev	-2985
redning	-2986
▁cykel	-2987
▁blod	-2988
▁uppmärk	-2989
stor	-2990
▁höga	-2991
▁fruk	-2992
kat	-2993
▁%	-2994
▁luft	-2995
▁?	-2996
▁låta	-2997
gå	-2998
▁främst	-2999
pon	-3000
▁exper	-3001
▁porrfilm	-3002
▁sidor	-3003
▁tyvärr	-3004
▁dist	-3005
inc	-3006
lay	-3007
▁såväl	-3008
ösa	-3009
▁Bland	-3010
esb	-3011
▁filmen	-3012
ören	-3013
▁od	-3014
▁nå	-3015
ocker	-3016
iljö	-3017
ica	-3018
▁allvar	-3019
äpp	-3020
▁exakt	-3021
▁hittade	-3022
back	-3023
▁Kar	-3024
▁port	-3025
▁fantastiska	-3026
▁reda	-3027
ugusti	-3028
sättningar	-3029
emål	-3030
ikation	-3031
▁kompet	-3032
▁Nor	-3033
▁tube	-3034
▁Str	-3035
1.	-3036
änning	-3037
▁väder	-3038
▁produc	-3039
▁köpte	-3040
▁present	-3041
▁sal	-3042
▁katt	-3043
▁upple	-3044
▁2014	-3045
▁kostnader	-3046
▁lang	-3047
▁da	-3048
uari	-3049
▁Ba	-3050
▁Del	-3051
▁dela	-3052
▁huset	-3053
▁känsla	-3054
hamn	-3055
skr	-3056
▁spring	-3057
▁stopp	-3058
▁bar	-3059
▁avs	-3060
▁kuk	-3061
▁feb	-3062
program	-3063
hn	-3064
▁Spel	-3065
▁mera	-3066
▁Europa	-3067
▁lördag	-3068
▁Arbet	-3069
▁hård	-3070
▁Din	-3071
▁kategor	-3072
▁drag	-3073
▁lunch	-3074
rummet	-3075
▁frukost	-3076
▁grav	-3077
▁språk	-3078
oo	-3079
▁förr	-3080
hall	-3081
▁bloggen	-3082
▁billiga	-3083
▁verktyg	-3084
▁Ju	-3085
▁Sch	-3086
▁lättare	-3087
terade	-3088
▁ansök	-3089
entligt	-3090
▁möt	-3091
iljer	-3092
oker	-3093
gatan	-3094
san	-3095
grund	-3096
arakt	-3097
▁stress	-3098
▁By	-3099
▁förhåll	-3100
full	-3101
▁lager	-3102
▁frågan	-3103
▁säk	-3104
post	-3105
▁Uppsala	-3106
▁60	-3107
▁marknaden	-3108
▁visade	-3109
▁gro	-3110
bruk	-3111
▁trä	-3112
▁tj	-3113
mm	-3114
bes	-3115
▁sjukdom	-3116
▁mängd	-3117
iell	-3118
▁författ	-3119
fte	-3120
▁fas	-3121
so	-3122
lare	-3123
▁opt	-3124
▁områden	-3125
▁boka	-3126
klare	-3127
ligheten	-3128
press	-3129
cens	-3130
▁utmärkt	-3131
▁max	-3132
▁nån	-3133
▁middag	-3134
▁fortsatt	-3135
▁viss	-3136
▁forskning	-3137
▁fantastiskt	-3138
garna	-3139
▁Jan	-3140
▁beställ	-3141
▁uppskatt	-3142
▁enkla	-3143
▁omkring	-3144
onen	-3145
▁användning	-3146
anda	-3147
▁önskar	-3148
bon	-3149
▁imorgon	-3150
nummer	-3151
▁storlek	-3152
tligen	-3153
ären	-3154
ibli	-3155
oklad	-3156
▁New	-3157
▁Varje	-3158
▁övriga	-3159
ager	-3160
▁Hög	-3161
▁Pl	-3162
▁web	-3163
▁girl	-3164
we	-3165
bered	-3166
to	-3167
▁Er	-3168
▁1.	-3169
▁+	-3170
oj	-3171
▁num	-3172
▁Hot	-3173
!!!	-3174
grupp	-3175
bol	-3176
▁äntligen	-3177
▁vers	-3178
▁Eskort	-3179
umär	-3180
dustri	-3181
▁hårt	-3182
▁krit	-3183
▁högt	-3184
▁bord	-3185
▁Ra	-3186
arbetare	-3187
▁hit	-3188
▁Lu	-3189
▁amatör	-3190
▁ide	-3191
▁Barn	-3192
▁rom	-3193
▁rädd	-3194
▁sociala	-3195
▁tillräck	-3196
dels	-3197
▁Väster	-3198
▁dal	-3199
▁testa	-3200
▁staden	-3201
▁lägg	-3202
▁skola	-3203
bas	-3204
▁berätta	-3205
ingborg	-3206
▁pappa	-3207
▁fantastisk	-3208
▁hälsa	-3209
uten	-3210
▁föräldrar	-3211
▁poj	-3212
omenad	-3213
▁tors	-3214
▁Anna	-3215
verkan	-3216
▁dö	-3217
▁byta	-3218
▁Kvinn	-3219
▁Trots	-3220
▁Ann	-3221
▁augusti	-3222
lor	-3223
▁tus	-3224
▁Mat	-3225
▁Gam	-3226
▁autom	-3227
▁kommunen	-3228
lande	-3229
ifier	-3230
jul	-3231
anger	-3232
▁kallas	-3233
nov	-3234
ipp	-3235
▁roliga	-3236
▁Gör	-3237
▁leva	-3238
ige	-3239
▁spelet	-3240
▁Kontakt	-3241
▁mjuk	-3242
▁avgör	-3243
▁nödvänd	-3244
▁söndag	-3245
▁sätter	-3246
pol	-3247
▁dej	-3248
▁ökar	-3249
▁trädgård	-3250
itar	-3251
▁hum	-3252
peratur	-3253
▁kyr	-3254
klam	-3255
ierna	-3256
▁Bill	-3257
▁Stockholms	-3258
▁Våra	-3259
▁januari	-3260
ood	-3261
▁plus	-3262
▁individ	-3263
serv	-3264
▁höger	-3265
▁amerik	-3266
▁Än	-3267
skon	-3268
▁malmö	-3269
▁tanke	-3270
▁Hoppas	-3271
▁juli	-3272
▁skillnad	-3273
▁spår	-3274
▁uppe	-3275
▁fastighet	-3276
let	-3277
▁ensam	-3278
▁manga	-3279
igen	-3280
▁my	-3281
▁vinna	-3282
▁framtiden	-3283
▁Söder	-3284
▁leder	-3285
▁Car	-3286
yp	-3287
son	-3288
▁ställa	-3289
▁lägre	-3290
9.	-3291
▁stället	-3292
verksamhet	-3293
ansen	-3294
▁vänster	-3295
▁Erik	-3296
▁guld	-3297
▁tidigt	-3298
▁höll	-3299
▁sann	-3300
▁Själv	-3301
▁km	-3302
▁os	-3303
▁lyckas	-3304
▁aktiviteter	-3305
ktioner	-3306
▁2.	-3307
ome	-3308
ana	-3309
00-	-3310
skade	-3311
▁kön	-3312
rang	-3313
ekomm	-3314
▁Tjejer	-3315
▁mesta	-3316
IS	-3317
▁behöv	-3318
▁skrivit	-3319
mål	-3320
vist	-3321
▁brans	-3322
vara	-3323
åld	-3324
yta	-3325
▁prova	-3326
▁kam	-3327
▁Igår	-3328
splan	-3329
▁mjöl	-3330
▁norr	-3331
▁28	-3332
▁april	-3333
▁säljer	-3334
▁fart	-3335
bundet	-3336
▁konkur	-3337
▁paket	-3338
▁engelska	-3339
▁vitt	-3340
ots	-3341
inal	-3342
▁Mycket	-3343
ivare	-3344
▁varmt	-3345
▁Person	-3346
▁populära	-3347
isa	-3348
rika	-3349
▁dryg	-3350
▁trevlig	-3351
▁*	-3352
▁strateg	-3353
ugning	-3354
▁totalt	-3355
▁Am	-3356
▁utnytt	-3357
▁ses	-3358
▁december	-3359
▁vann	-3360
▁extre	-3361
▁nor	-3362
tan	-3363
▁åtgär	-3364
▁drabb	-3365
ägare	-3366
ottag	-3367
▁ske	-3368
▁kött	-3369
▁tillhör	-3370
▁kontroller	-3371
ologi	-3372
▁grader	-3373
kam	-3374
▁eta	-3375
▁himla	-3376
▁klicka	-3377
▁mej	-3378
▁her	-3379
▁kände	-3380
▁27	-3381
LL	-3382
ting	-3383
istik	-3384
▁data	-3385
▁visst	-3386
3.	-3387
ale	-3388
▁lämp	-3389
▁elekt	-3390
▁Facebook	-3391
▁beror	-3392
▁träna	-3393
star	-3394
▁yngre	-3395
▁härlig	-3396
rustning	-3397
▁chef	-3398
▁fj	-3399
ädda	-3400
▁2015	-3401
▁öppen	-3402
▁sverige	-3403
enden	-3404
▁fjär	-3405
▁it	-3406
▁hösten	-3407
▁Över	-3408
▁ena	-3409
▁kontor	-3410
▁kass	-3411
ette	-3412
▁borta	-3413
▁26	-3414
▁Bok	-3415
▁kommande	-3416
▁Ka	-3417
ola	-3418
▁Mot	-3419
▁förklar	-3420
▁Använd	-3421
itid	-3422
kopp	-3423
teras	-3424
▁ark	-3425
▁Pris	-3426
orge	-3427
▁back	-3428
▁profil	-3429
seende	-3430
▁vir	-3431
oppet	-3432
▁maste	-3433
gren	-3434
igh	-3435
▁högsta	-3436
▁Lund	-3437
▁Sexiga	-3438
▁handla	-3439
▁snö	-3440
vju	-3441
▁boende	-3442
ener	-3443
▁lokala	-3444
▁närma	-3445
▁matt	-3446
▁Krist	-3447
▁välkom	-3448
▁Internet	-3449
ärn	-3450
▁nämn	-3451
-)	-3452
▁Tänk	-3453
▁värme	-3454
▁—	-3455
▁Lind	-3456
▁Tid	-3457
ämta	-3458
AT	-3459
▁underhåll	-3460
▁Väst	-3461
▁jäv	-3462
ww	-3463
▁läser	-3464
▁vägg	-3465
▁bygger	-3466
▁kostar	-3467
▁valt	-3468
▁He	-3469
▁Film	-3470
▁utifrån	-3471
▁oper	-3472
▁dam	-3473
▁begräns	-3474
▁påverka	-3475
sprung	-3476
▁Sy	-3477
esl	-3478
▁bro	-3479
eringar	-3480
▁cookies	-3481
▁brott	-3482
åne	-3483
▁snygga	-3484
▁ram	-3485
sd	-3486
▁Im	-3487
ric	-3488
▁kaffe	-3489
ald	-3490
▁tjänst	-3491
▁Hall	-3492
▁fö	-3493
ox	-3494
▁Mon	-3495
givare	-3496
ände	-3497
▁vuxna	-3498
ollar	-3499
cke	-3500
▁spa	-3501
▁märk	-3502
▁sim	-3503
▁dåligt	-3504
läggning	-3505
råden	-3506
▁konto	-3507
▁varm	-3508
▁ident	-3509
agg	-3510
▁enbart	-3511
▁mäng	-3512
aget	-3513
▁dagarna	-3514
erades	-3515
ktor	-3516
▁kompetens	-3517
vika	-3518
delning	-3519
iod	-3520
▁resten	-3521
▁självklart	-3522
lipp	-3523
▁Björ	-3524
▁Välkommen	-3525
atiskt	-3526
▁varumär	-3527
▁insats	-3528
▁ret	-3529
▁kri	-3530
larna	-3531
▁kurs	-3532
ect	-3533
▁motor	-3534
▁detaljer	-3535
orlunda	-3536
▁vacker	-3537
▁Bar	-3538
kad	-3539
▁följande	-3540
▁tillverk	-3541
behör	-3542
gn	-3543
ställningar	-3544
system	-3545
likt	-3546
▁villkor	-3547
inder	-3548
tim	-3549
pack	-3550
▁specif	-3551
▁avsl	-3552
enten	-3553
▁dokument	-3554
por	-3555
igg	-3556
dem	-3557
▁500	-3558
ydda	-3559
▁läst	-3560
ningsvis	-3561
▁hämt	-3562
▁tis	-3563
▁någonsin	-3564
▁tak	-3565
ningsdag	-3566
edd	-3567
ander	-3568
▁vattnet	-3569
▁utl	-3570
▁team	-3571
unga	-3572
▁meddel	-3573
ningss	-3574
ream	-3575
▁förel	-3576
▁euro	-3577
▁are	-3578
▁enskil	-3579
▁Hels	-3580
klubb	-3581
▁mask	-3582
▁tåg	-3583
marna	-3584
▁Gre	-3585
▁inled	-3586
▁vanlig	-3587
▁trafik	-3588
▁sek	-3589
ligheter	-3590
▁karakt	-3591
▁Gud	-3592
▁Varför	-3593
/1	-3594
▁nyhet	-3595
▁medvet	-3596
oms	-3597
▁Låt	-3598
ST	-3599
äget	-3600
iteten	-3601
ruari	-3602
▁kre	-3603
ills	-3604
▁standard	-3605
▁adress	-3606
server	-3607
tta	-3608
▁platt	-3609
ötter	-3610
rift	-3611
▁polis	-3612
▁rut	-3613
▁smart	-3614
▁sortiment	-3615
▁intresserad	-3616
▁triv	-3617
▁(2	-3618
▁matchen	-3619
▁Fär	-3620
▁förstås	-3621
ura	-3622
▁hållbar	-3623
anna	-3624
▁senast	-3625
▁hypotek	-3626
▁gymnas	-3627
▁com	-3628
▁ne	-3629
▁198	-3630
▁ständ	-3631
▁Tur	-3632
▁passa	-3633
▁ekonomiska	-3634
▁hypotekslan	-3635
▁klipp	-3636
▁tum	-3637
▁choklad	-3638
ula	-3639
▁tit	-3640
brott	-3641
teck	-3642
▁värdering	-3643
▁dukt	-3644
add	-3645
rebro	-3646
▁lugn	-3647
stav	-3648
▁sova	-3649
▁kille	-3650
▁anledning	-3651
▁Ben	-3652
▁drar	-3653
▁tankar	-3654
▁plast	-3655
inge	-3656
▁fordon	-3657
▁viktigaste	-3658
▁29	-3659
ställa	-3660
ment	-3661
imal	-3662
▁offent	-3663
▁mail	-3664
agra	-3665
stru	-3666
▁fönster	-3667
stående	-3668
▁mynd	-3669
▁Bet	-3670
▁Två	-3671
▁ont	-3672
▁priset	-3673
40	-3674
▁kyl	-3675
usive	-3676
▁personlig	-3677
▁vänta	-3678
▁förbättra	-3679
▁tas	-3680
▁bidrag	-3681
▁Mitt	-3682
▁band	-3683
▁wh	-3684
ating	-3685
▁härligt	-3686
ildo	-3687
▁SM	-3688
▁undersök	-3689
ullar	-3690
▁centrum	-3691
▁integr	-3692
▁gäll	-3693
resent	-3694
▁namnet	-3695
ET	-3696
▁mogna	-3697
▁tråk	-3698
▁ww	-3699
▁trevligt	-3700
skär	-3701
▁'	-3702
▁shopp	-3703
▁Ph	-3704
▁köper	-3705
▁leg	-3706
▁känsl	-3707
▁skor	-3708
▁Fil	-3709
▁damer	-3710
▁Ingen	-3711
▁natten	-3712
▁förutom	-3713
▁kontroll	-3714
▁vak	-3715
▁lösningar	-3716
råde	-3717
▁trodde	-3718
▁kåta	-3719
▁tillräckligt	-3720
chef	-3721
▁nej	-3722
▁Nej	-3723
▁Ibland	-3724
växt	-3725
delen	-3726
www	-3727
splatsen	-3728
▁ak	-3729
▁klimat	-3730
åda	-3731
▁Berg	-3732
▁äter	-3733
edagog	-3734
▁ång	-3735
skning	-3736
60	-3737
▁www	-3738
meå	-3739
▁gäster	-3740
▁beställa	-3741
ektive	-3742
▁rym	-3743
▁däck	-3744
▁Dejting	-3745
ätta	-3746
▁såklart	-3747
ire	-3748
fören	-3749
▁nöj	-3750
▁bjuder	-3751
▁site	-3752
▁kat	-3753
▁Tre	-3754
ustr	-3755
▁sist	-3756
ungen	-3757
▁röst	-3758
▁Ros	-3759
▁flytta	-3760
.”	-3761
utveckling	-3762
ycker	-3763
▁Bara	-3764
ckar	-3765
spekt	-3766
ower	-3767
▁avlö	-3768
▁solen	-3769
▁misst	-3770
▁varier	-3771
läs	-3772
▁respektive	-3773
▁framåt	-3774
sled	-3775
▁bekväm	-3776
stra	-3777
▁osv	-3778
▁info	-3779
▁betydligt	-3780
klass	-3781
▁!	-3782
▁smör	-3783
▁fir	-3784
värt	-3785
enting	-3786
▁spender	-3787
Det	-3788
▁ägg	-3789
▁samtliga	-3790
spektiv	-3791
amin	-3792
▁anställda	-3793
▁rapporter	-3794
▁samtal	-3795
▁Stora	-3796
▁riktig	-3797
▁digit	-3798
▁känd	-3799
ual	-3800
ror	-3801
öllop	-3802
▁säsong	-3803
börj	-3804
▁sådana	-3805
▁medicin	-3806
still	-3807
▁lock	-3808
▁Kal	-3809
▁dusch	-3810
▁kart	-3811
▁etabl	-3812
▁spelade	-3813
▁ihåg	-3814
unk	-3815
▁område	-3816
old	-3817
▁anslut	-3818
barn	-3819
▁ins	-3820
▁februari	-3821
hålla	-3822
ysning	-3823
skad	-3824
▁icke	-3825
leken	-3826
▁http	-3827
vän	-3828
▁avsnitt	-3829
▁nord	-3830
▁fan	-3831
elat	-3832
▁amb	-3833
söka	-3834
när	-3835
▁Hitta	-3836
iti	-3837
▁Ed	-3838
▁ladda	-3839
▁Lite	-3840
▁saknar	-3841
endet	-3842
▁sla	-3843
▁drog	-3844
▁profession	-3845
▁marknadsför	-3846
▁underbara	-3847
▁beg	-3848
▁tand	-3849
▁Hans	-3850
▁Finns	-3851
samling	-3852
▁etc	-3853
▁tuff	-3854
dern	-3855
▁tonår	-3856
4.	-3857
cep	-3858
▁nyf	-3859
▁gemensam	-3860
▁medarbetare	-3861
ase	-3862
fest	-3863
▁våren	-3864
▁grän	-3865
orten	-3866
▁punkt	-3867
ändska	-3868
▁förvär	-3869
▁säsongen	-3870
▁modell	-3871
pren	-3872
▁Best	-3873
▁spara	-3874
inar	-3875
▁lägenhet	-3876
▁jätte	-3877
▁våld	-3878
handel	-3879
▁besöka	-3880
▁ev	-3881
▁betyg	-3882
▁Anders	-3883
▁Online	-3884
▁idrott	-3885
▁ligga	-3886
▁lyssna	-3887
▁kändes	-3888
▁sid	-3889
▁kunnat	-3890
▁hittat	-3891
▁Hos	-3892
ham	-3893
▁mod	-3894
▁sådant	-3895
skapet	-3896
ise	-3897
▁Företag	-3898
▁givet	-3899
▁ränta	-3900
oga	-3901
▁försäljning	-3902
▁nummer	-3903
▁regn	-3904
▁tillverka	-3905
följ	-3906
▁ända	-3907
itivt	-3908
▁inspiration	-3909
▁grann	-3910
tryck	-3911
▁Förutom	-3912
mot	-3913
▁perfekta	-3914
▁bedöm	-3915
▁nätdejting	-3916
elt	-3917
aten	-3918
▁App	-3919
maskin	-3920
▁leverans	-3921
▁reklam	-3922
▁sälja	-3923
ödra	-3924
▁sky	-3925
▁Ge	-3926
▁förbi	-3927
▁your	-3928
▁fe	-3929
▁närmare	-3930
▁Con	-3931
▁out	-3932
lir	-3933
▁Bor	-3934
▁anser	-3935
▁Kö	-3936
incip	-3937
dret	-3938
8.	-3939
▁Dom	-3940
atan	-3941
tidigt	-3942
ovis	-3943
▁lagt	-3944
stå	-3945
lo	-3946
alla	-3947
bjud	-3948
▁nyck	-3949
ona	-3950
▁vol	-3951
▁tyg	-3952
▁rent	-3953
▁parker	-3954
▁härliga	-3955
▁ans	-3956
▁tri	-3957
äning	-3958
▁Välj	-3959
▁Anal	-3960
nu	-3961
ep	-3962
▁därefter	-3963
▁last	-3964
ffan	-3965
▁avtal	-3966
▁sluta	-3967
▁ekonomi	-3968
▁hantera	-3969
▁erotisk	-3970
▁avlöningsdag	-3971
▁kil	-3972
6.	-3973
▁intervju	-3974
▁Her	-3975
▁rekommenderar	-3976
ftet	-3977
▁finner	-3978
▁infl	-3979
urser	-3980
uren	-3981
▁restaurang	-3982
▁studer	-3983
▁live	-3984
▁måndag	-3985
amen	-3986
▁1,	-3987
▁sannol	-3988
▁motsvar	-3989
▁vita	-3990
▁mju	-3991
▁rygg	-3992
onger	-3993
▁delta	-3994
▁glädje	-3995
-3	-3996
tter	-3997
oth	-3998
▁stär	-3999
▁rejäl	-4000
▁knappt	-4001
▁förskott	-4002
▁plocka	-4003
▁vackert	-4004
▁studie	-4005
▁ställer	-4006
äls	-4007
▁organisation	-4008
ED	-4009
▁möjliga	-4010
▁annorlunda	-4011
pat	-4012
▁jakt	-4013
xx	-4014
▁timme	-4015
▁bilderna	-4016
▁ordförande	-4017
▁Hus	-4018
▁papper	-4019
▁ladd	-4020
här	-4021
▁sexleksaker	-4022
iot	-4023
▁lans	-4024
▁mång	-4025
▁visas	-4026
▁papp	-4027
▁Fri	-4028
ården	-4029
bler	-4030
▁sång	-4031
visning	-4032
fot	-4033
vägen	-4034
▁Knulla	-4035
▁enklare	-4036
örd	-4037
stjän	-4038
▁unika	-4039
▁plöts	-4040
▁stabil	-4041
▁erbjudanden	-4042
▁köpt	-4043
▁pratar	-4044
▁con	-4045
odligen	-4046
▁197	-4047
▁Tor	-4048
▁utvecklas	-4049
▁Pr	-4050
▁uttryck	-4051
▁this	-4052
ingsl	-4053
▁upptäck	-4054
▁samhället	-4055
▁dest	-4056
▁länkar	-4057
▁porno	-4058
▁verksamheten	-4059
▁Thaimassage	-4060
platsen	-4061
▁Mart	-4062
rala	-4063
mel	-4064
▁närheten	-4065
▁promenad	-4066
▁förlor	-4067
▁slå	-4068
▁skuld	-4069
▁lämnar	-4070
åter	-4071
▁puss	-4072
kommer	-4073
uc	-4074
▁Natur	-4075
▁antalet	-4076
ista	-4077
vers	-4078
fton	-4079
▁vinst	-4080
▁Örebro	-4081
▁<	-4082
▁Ul	-4083
▁undrar	-4084
äsch	-4085
shus	-4086
▁Samtidigt	-4087
ogle	-4088
shop	-4089
▁dyg	-4090
▁antingen	-4091
▁ordentligt	-4092
▁modern	-4093
zz	-4094
▁minn	-4095
ON	-4096
skaper	-4097
▁sål	-4098
ioden	-4099
▁läge	-4100
▁Mal	-4101
ävle	-4102
▁starkt	-4103
▁neg	-4104
▁🙂	-4105
kten	-4106
▁bod	-4107
▁datorn	-4108
skv	-4109
▁utrym	-4110
▁modeller	-4111
▁söder	-4112
▁Först	-4113
onder	-4114
▁Nil	-4115
off	-4116
▁80	-4117
▁drygt	-4118
th	-4119
ics	-4120
▁bilar	-4121
smedel	-4122
▁redo	-4123
▁upplevelse	-4124
▁Carl	-4125
▁webbplatsen	-4126
ologiska	-4127
▁chansen	-4128
▁yrk	-4129
▁Peter	-4130
kvens	-4131
▁Mil	-4132
fred	-4133
▁prest	-4134
▁Kvinnor	-4135
▁görs	-4136
▁region	-4137
▁cyk	-4138
▁gäng	-4139
bor	-4140
▁tänk	-4141
▁tittar	-4142
▁kända	-4143
▁funktioner	-4144
▁»	-4145
▁era	-4146
▁pengarna	-4147
▁regler	-4148
▁valde	-4149
▁ursprung	-4150
fors	-4151
▁konsum	-4152
blick	-4153
▁Amatör	-4154
▁2013	-4155
▁fitta	-4156
▁nåt	-4157
▁möjligheten	-4158
▁cit	-4159
▁Finland	-4160
▁söt	-4161
▁sjukt	-4162
hel	-4163
▁Dock	-4164
▁städ	-4165
7.	-4166
▁inkluder	-4167
▁musk	-4168
anten	-4169
svär	-4170
ventyr	-4171
▁eftermid	-4172
▁dejta	-4173
▁utlan	-4174
▁växer	-4175
:00	-4176
▁dyr	-4177
▁ikväll	-4178
▁käll	-4179
rike	-4180
own	-4181
▁värt	-4182
▁sajt	-4183
ommar	-4184
▁ingenting	-4185
▁gravid	-4186
▁maskin	-4187
▁starka	-4188
▁växt	-4189
▁Frank	-4190
▁mönster	-4191
givning	-4192
▁vind	-4193
▁innov	-4194
▁Pass	-4195
tekn	-4196
Jag	-4197
▁ändra	-4198
▁fritid	-4199
▁lista	-4200
hov	-4201
▁ställe	-4202
▁ungdomar	-4203
▁öppet	-4204
▁Kr	-4205
▁Super	-4206
▁kontra	-4207
sorg	-4208
▁Kung	-4209
▁föred	-4210
▁arm	-4211
åp	-4212
▁någonting	-4213
▁förekomm	-4214
▁övrigt	-4215
resen	-4216
▁Fal	-4217
▁jämfört	-4218
▁fre	-4219
vr	-4220
▁energ	-4221
ific	-4222
▁vuxen	-4223
▁mår	-4224
dustr	-4225
▁tving	-4226
▁ansökan	-4227
▁hall	-4228
AS	-4229
▁Ind	-4230
▁na	-4231
▁nätverk	-4232
▁Vet	-4233
▁garanter	-4234
▁strax	-4235
aden	-4236
▁tydligt	-4237
edish	-4238
önstr	-4239
▁polisen	-4240
▁sikt	-4241
▁vinn	-4242
▁Klicka	-4243
▁Ham	-4244
etr	-4245
▁kommunikation	-4246
▁Christ	-4247
▁dis	-4248
▁förutsättningar	-4249
grepp	-4250
▁försök	-4251
▁Hand	-4252
▁orsak	-4253
▁Da	-4254
dera	-4255
▁djup	-4256
ulär	-4257
▁rosa	-4258
▁Lägg	-4259
▁hämta	-4260
▁däremot	-4261
▁brand	-4262
▁erotiska	-4263
enskaper	-4264
▁Skulle	-4265
▁mitten	-4266
▁ocksa	-4267
äkter	-4268
klag	-4269
▁leda	-4270
slös	-4271
."	-4272
▁möta	-4273
året	-4274
▁höj	-4275
isering	-4276
änga	-4277
stone	-4278
▁bröllop	-4279
▁bev	-4280
▁söm	-4281
▁period	-4282
▁Matt	-4283
▁underbart	-4284
▁internationella	-4285
les	-4286
▁intr	-4287
▁starta	-4288
▁Bro	-4289
▁pension	-4290
unktion	-4291
▁serie	-4292
▁Ko	-4293
▁torr	-4294
▁dels	-4295
▁Hade	-4296
▁70	-4297
▁31	-4298
▁John	-4299
▁lyx	-4300
▁billigt	-4301
▁stick	-4302
▁prote	-4303
▁ill	-4304
▁No	-4305
▁Fram	-4306
▁dålig	-4307
ilt	-4308
▁definitivt	-4309
▁utform	-4310
▁platsen	-4311
issa	-4312
▁seg	-4313
mode	-4314
▁laget	-4315
▁vore	-4316
▁huvudet	-4317
▁skul	-4318
▁datum	-4319
▁fant	-4320
▁värd	-4321
▁Stud	-4322
▁frisk	-4323
annen	-4324
gera	-4325
tit	-4326
▁stycken	-4327
▁krig	-4328
▁kampan	-4329
▁naturligtvis	-4330
St	-4331
bum	-4332
▁klarar	-4333
istiska	-4334
▁Com	-4335
dagar	-4336
▁socker	-4337
▁IT	-4338
▁2012	-4339
▁batt	-4340
▁förändring	-4341
▁lösning	-4342
▁SV	-4343
▁betalar	-4344
▁välkommen	-4345
▁mov	-4346
▁lyckades	-4347
list	-4348
▁omedel	-4349
▁Mark	-4350
▁bom	-4351
anti	-4352
▁salt	-4353
▁fört	-4354
▁skit	-4355
tiden	-4356
iff	-4357
▁2010	-4358
▁Posted	-4359
institut	-4360
▁fåg	-4361
ilje	-4362
▁Mus	-4363
▁undvika	-4364
▁huden	-4365
▁nagon	-4366
▁not	-4367
▁fylla	-4368
▁plötsligt	-4369
▁underbar	-4370
▁exkl	-4371
▁digital	-4372
▁letar	-4373
▁industri	-4374
▁färdig	-4375
▁längs	-4376
▁sma	-4377
▁normalt	-4378
▁påverkar	-4379
hi	-4380
▁fyller	-4381
öta	-4382
▁projektet	-4383
hy	-4384
▁lösa	-4385
▁räcker	-4386
▁Vissa	-4387
▁Vilken	-4388
önköping	-4389
▁accep	-4390
▁urval	-4391
betalning	-4392
▁säm	-4393
▁fixa	-4394
▁Bästa	-4395
▁jour	-4396
▁Maria	-4397
▁besökare	-4398
▁Vårt	-4399
dukter	-4400
▁Ek	-4401
▁åtta	-4402
▁Social	-4403
▁brev	-4404
▁väst	-4405
▁fungera	-4406
▁resultatet	-4407
ele	-4408
▁Visa	-4409
▁90	-4410
irekt	-4411
hav	-4412
▁san	-4413
▁kompis	-4414
▁dejtingsajt	-4415
▁bekr	-4416
▁Nya	-4417
▁sorter	-4418
▁inl	-4419
▁kvalit	-4420
??	-4421
▁gäst	-4422
▁ökad	-4423
gruppen	-4424
upport	-4425
▁balans	-4426
▁iP	-4427
▁satte	-4428
kohol	-4429
▁funkar	-4430
▁→	-4431
▁utomhus	-4432
▁ov	-4433
▁konferens	-4434
grader	-4435
▁snar	-4436
▁ry	-4437
▁Red	-4438
etten	-4439
enskt	-4440
▁3.	-4441
ostadress	-4442
emat	-4443
▁körde	-4444
förallt	-4445
▁sängen	-4446
▁jur	-4447
▁temperatur	-4448
▁ot	-4449
bergs	-4450
▁Tot	-4451
mäss	-4452
ledare	-4453
▁Några	-4454
▁hål	-4455
▁Tyvärr	-4456
▁fett	-4457
▁matcher	-4458
▁föreläs	-4459
▁förening	-4460
80	-4461
▁genomsnitt	-4462
▁vari	-4463
▁bidra	-4464
göra	-4465
▁välj	-4466
▁sättet	-4467
▁siff	-4468
omas	-4469
▁singlar	-4470
erier	-4471
▁serien	-4472
▁hänt	-4473
▁Land	-4474
▁killar	-4475
försälj	-4476
/0	-4477
▁blommor	-4478
▁Sim	-4479
▁..	-4480
▁As	-4481
▁sånt	-4482
rande	-4483
▁grym	-4484
▁göras	-4485
▁dejt	-4486
▁mogen	-4487
▁lat	-4488
▁ständigt	-4489
▁betydelse	-4490
▁jävla	-4491
▁snabbare	-4492
▁gjor	-4493
skl	-4494
▁nagot	-4495
▁produktion	-4496
ledningen	-4497
▁beräk	-4498
▁35	-4499
▁bibli	-4500
▁transport	-4501
▁fing	-4502
ancer	-4503
▁förmodligen	-4504
▁diskuss	-4505
sdagen	-4506
ction	-4507
▁äventyr	-4508
oteket	-4509
▁flex	-4510
In	-4511
▁kalla	-4512
▁fika	-4513
▁programmet	-4514
undsvall	-4515
allt	-4516
▁vand	-4517
ben	-4518
▁bilj	-4519
▁finansiering	-4520
▁frakt	-4521
▁överra	-4522
orden	-4523
▁bidrar	-4524
hets	-4525
▁funn	-4526
▁Andersson	-4527
▁mannen	-4528
▁Första	-4529
▁uppn	-4530
▁kak	-4531
ssa	-4532
▁Val	-4533
iam	-4534
▁fukt	-4535
▁chat	-4536
ranger	-4537
▁slog	-4538
ada	-4539
kning	-4540
mg	-4541
▁rid	-4542
▁detalj	-4543
▁morgonen	-4544
▁Tysk	-4545
▁gay	-4546
fe	-4547
▁sub	-4548
▁glob	-4549
▁tråd	-4550
jöd	-4551
ppy	-4552
▁son	-4553
▁princip	-4554
talien	-4555
▁gällande	-4556
isera	-4557
emedel	-4558
utbildning	-4559
minstone	-4560
▁fräsch	-4561
▁äger	-4562
▁nagra	-4563
▁ledande	-4564
slaget	-4565
umm	-4566
▁Ob	-4567
▁numera	-4568
igur	-4569
▁skiv	-4570
▁underl	-4571
▁klassiska	-4572
▁konkurr	-4573
▁tillgängliga	-4574
▁artikel	-4575
▁dildo	-4576
▁renover	-4577
▁förbered	-4578
▁Kat	-4579
▁stanna	-4580
fan	-4581
▁förhopp	-4582
fs	-4583
▁ges	-4584
▁slutade	-4585
▁anl	-4586
ands	-4587
ssystem	-4588
▁budget	-4589
önt	-4590
▁Svar	-4591
ns	-4592
▁intens	-4593
▁Visst	-4594
▁HD	-4595
▁gett	-4596
venemang	-4597
▁släkt	-4598
cy	-4599
▁situation	-4600
mon	-4601
:)	-4602
▁utsikt	-4603
▁försäkring	-4604
▁Norge	-4605
70	-4606
fulla	-4607
▁lekt	-4608
porter	-4609
▁Eng	-4610
▁inrikt	-4611
ira	-4612
▁seri	-4613
▁Google	-4614
▁hav	-4615
▁butiker	-4616
▁tunn	-4617
▁real	-4618
▁bur	-4619
▁arrang	-4620
▁glada	-4621
▁lesb	-4622
▁Rik	-4623
ienter	-4624
▁iaf	-4625
▁hundar	-4626
lekar	-4627
▁startade	-4628
▁grill	-4629
attis	-4630
▁rolig	-4631
spelare	-4632
▁ordning	-4633
ners	-4634
▁uppfatt	-4635
▁människa	-4636
▁höjd	-4637
▁bem	-4638
▁enorm	-4639
▁sväng	-4640
▁handel	-4641
▁Köpa	-4642
rim	-4643
▁porrfilmer	-4644
▁analys	-4645
▁Sil	-4646
▁medier	-4647
IG	-4648
RA	-4649
sprogram	-4650
15	-4651
▁inform	-4652
▁Dal	-4653
▁användare	-4654
IK	-4655
onn	-4656
▁vars	-4657
▁metod	-4658
▁videor	-4659
▁dotter	-4660
▁lugnt	-4661
delser	-4662
▁vardags	-4663
änkt	-4664
▁valet	-4665
▁skratt	-4666
▁sällan	-4667
▁•	-4668
sid	-4669
▁So	-4670
ose	-4671
▁Me	-4672
ance	-4673
imul	-4674
▁moderna	-4675
▁möter	-4676
▁idéer	-4677
▁up	-4678
▁lyckats	-4679
▁serv	-4680
▁Ur	-4681
▁Sven	-4682
▁skogen	-4683
▁partner	-4684
▁ir	-4685
entera	-4686
12	-4687
mask	-4688
smål	-4689
ents	-4690
▁ström	-4691
▁Des	-4692
isch	-4693
asinon	-4694
▁havet	-4695
▁kåt	-4696
▁snyggt	-4697
riär	-4698
kod	-4699
▁inf	-4700
▁försikt	-4701
srätt	-4702
postadress	-4703
jälp	-4704
▁Art	-4705
▁botten	-4706
yter	-4707
arder	-4708
start	-4709
▁tillgänglig	-4710
▁Lars	-4711
▁mottag	-4712
▁öl	-4713
▁konstat	-4714
▁uppleva	-4715
▁golv	-4716
▁nytta	-4717
iven	-4718
▁installer	-4719
▁Andra	-4720
frågan	-4721
kast	-4722
platser	-4723
spol	-4724
änna	-4725
▁svarta	-4726
ori	-4727
go	-4728
▁oer	-4729
▁Kommer	-4730
▁aut	-4731
▁Sta	-4732
▁yrkes	-4733
▁Helt	-4734
▁webbplatser	-4735
▁Hol	-4736
▁bevis	-4737
▁Fort	-4738
▁45	-4739
vide	-4740
:-	-4741
▁tillfälle	-4742
▁skil	-4743
▁digitala	-4744
▁talar	-4745
ampa	-4746
TE	-4747
▁inklusive	-4748
ostäder	-4749
▁sent	-4750
▁visste	-4751
▁maten	-4752
▁hamn	-4753
▁Vin	-4754
▁Bygg	-4755
▁effektivt	-4756
▁central	-4757
▁bestämt	-4758
▁langivare	-4759
▁regeringen	-4760
satta	-4761
▁kombination	-4762
▁Må	-4763
ugga	-4764
hört	-4765
ställd	-4766
▁lust	-4767
hang	-4768
▁rev	-4769
ids	-4770
▁Fredrik	-4771
▁kallade	-4772
▁toppen	-4773
▁tung	-4774
träd	-4775
SS	-4776
▁arranger	-4777
▁Sand	-4778
aterial	-4779
tida	-4780
sterna	-4781
mail	-4782
trepren	-4783
▁Skåne	-4784
▁köket	-4785
amilj	-4786
kraft	-4787
▁driver	-4788
▁leverantörer	-4789
▁300	-4790
iteter	-4791
▁givetvis	-4792
▁mä	-4793
skorter	-4794
sköter	-4795
▁orig	-4796
gj	-4797
umma	-4798
▁förmåga	-4799
▁Mål	-4800
▁avl	-4801
▁länk	-4802
▁mått	-4803
▁vanligtvis	-4804
▁takt	-4805
▁omfattande	-4806
upplev	-4807
▁bransch	-4808
▁utlaning	-4809
99	-4810
oden	-4811
ctor	-4812
oris	-4813
ines	-4814
▁Video	-4815
gången	-4816
▁ämnen	-4817
▁hört	-4818
▁hyll	-4819
▁täck	-4820
▁bröd	-4821
ike	-4822
▁inred	-4823
liken	-4824
▁ago	-4825
▁naturen	-4826
▁restauranger	-4827
hög	-4828
▁nyheter	-4829
▁försvar	-4830
▁rummet	-4831
▁lagen	-4832
▁avgifter	-4833
▁Black	-4834
▁alkohol	-4835
▁Helsingborg	-4836
▁unik	-4837
▁struktur	-4838
▁Oavsett	-4839
ema	-4840
▁dekor	-4841
▁njut	-4842
▁nyligen	-4843
döm	-4844
▁kamer	-4845
▁uppgift	-4846
jar	-4847
▁nuvarande	-4848
antag	-4849
▁ku	-4850
▁lopp	-4851
▁Ele	-4852
derna	-4853
▁antag	-4854
▁jobbat	-4855
lösa	-4856
▁stål	-4857
▁snabba	-4858
▁kvart	-4859
ID	-4860
itekt	-4861
▁närvarande	-4862
ckade	-4863
olja	-4864
material	-4865
ansvar	-4866
▁ater	-4867
sked	-4868
▁springa	-4869
vätt	-4870
▁järn	-4871
lats	-4872
ya	-4873
▁extremt	-4874
bu	-4875
▁ax	-4876
▁bakgrund	-4877
▁Tim	-4878
▁nack	-4879
▁vintern	-4880
▁that	-4881
ynt	-4882
▁veg	-4883
▁2,	-4884
▁2018.	-4885
lov	-4886
▁sällskap	-4887
ama	-4888
▁väster	-4889
ikro	-4890
tjänst	-4891
ometer	-4892
▁erotik	-4893
jön	-4894
▁röda	-4895
▁fru	-4896
gt	-4897
▁listan	-4898
▁mängder	-4899
▁syfte	-4900
▁onsdag	-4901
▁objekt	-4902
▁Folk	-4903
ställningen	-4904
orld	-4905
▁befinner	-4906
▁mysigt	-4907
eu	-4908
▁startar	-4909
▁utvecklingen	-4910
▁säkra	-4911
yggen	-4912
färd	-4913
▁ringa	-4914
usin	-4915
▁sjön	-4916
ialis	-4917
▁dejtingsidor	-4918
▁Kram	-4919
▁erk	-4920
ikat	-4921
▁Får	-4922
rick	-4923
▁ref	-4924
icro	-4925
▁tider	-4926
▁konstigt	-4927
▁boll	-4928
25	-4929
ängen	-4930
udd	-4931
kret	-4932
▁kok	-4933
▁slags	-4934
dela	-4935
rediens	-4936
▁Alex	-4937
klara	-4938
vi	-4939
▁hamnar	-4940
handa	-4941
▁sugen	-4942
▁Danmark	-4943
▁avanc	-4944
resa	-4945
uga	-4946
▁resan	-4947
vel	-4948
▁utred	-4949
▁inlägget	-4950
yser	-4951
▁Kommun	-4952
▁organisationer	-4953
▁Kontakta	-4954
området	-4955
lim	-4956
45	-4957
▁fol	-4958
▁mörk	-4959
sg	-4960
▁läkare	-4961
▁intressanta	-4962
▁utav	-4963
▁regl	-4964
▁potent	-4965
hail	-4966
entals	-4967
▁förvalt	-4968
▁centrala	-4969
sting	-4970
ätter	-4971
ows	-4972
mande	-4973
qvist	-4974
▁IF	-4975
▁skickar	-4976
▁ho	-4977
▁sign	-4978
▁Äldre	-4979
▁politik	-4980
▁aktuella	-4981
▁hunnit	-4982
äda	-4983
äva	-4984
▁studier	-4985
▁relation	-4986
årig	-4987
▁comm	-4988
▁torsdag	-4989
▁Dav	-4990
▁svara	-4991
▁konf	-4992
▁framförallt	-4993
frågor	-4994
▁recens	-4995
fria	-4996
CK	-4997
stift	-4998
udenter	-4999
▁tanken	-5000
uer	-5001
▁Tw	-5002
jej	-5003
▁ST	-5004
▁syster	-5005
▁tjock	-5006
▁gran	-5007
▁låna	-5008
▁mjölk	-5009
▁erfarenheter	-5010
läggande	-5011
arbetet	-5012
▁mänsk	-5013
troende	-5014
sjö	-5015
▁Lar	-5016
gg	-5017
olan	-5018
▁196	-5019
▁gal	-5020
▁Cent	-5021
ze	-5022
SK	-5023
▁känslor	-5024
▁2011	-5025
▁relativt	-5026
▁́	-5027
porr	-5028
▁yr	-5029
▁forum	-5030
▁exklus	-5031
▁riktiga	-5032
▁por	-5033
▁fördelar	-5034
▁sjukv	-5035
▁position	-5036
akta	-5037
▁former	-5038
▁Dating	-5039
▁Pat	-5040
▁God	-5041
▁annonser	-5042
bra	-5043
▁Log	-5044
skri	-5045
mo	-5046
arens	-5047
▁>	-5048
▁badrum	-5049
▁Magn	-5050
▁dvs	-5051
▁utgör	-5052
▁sade	-5053
▁upptäcka	-5054
ondon	-5055
▁kem	-5056
▁To	-5057
osition	-5058
▁rakt	-5059
mus	-5060
▁erbjudande	-5061
▁And	-5062
▁soffan	-5063
ologisk	-5064
▁strå	-5065
▁skickas	-5066
OS	-5067
jobb	-5068
▁amerikanska	-5069
▁Sport	-5070
dex	-5071
▁metoder	-5072
▁symbol	-5073
iger	-5074
▁populär	-5075
ior	-5076
▁hotellet	-5077
▁ras	-5078
ival	-5079
▁Cam	-5080
skrivning	-5081
▁övert	-5082
▁juster	-5083
▁brud	-5084
▁visat	-5085
stat	-5086
▁förstär	-5087
▁IN	-5088
sut	-5089
▁individer	-5090
▁100%	-5091
delsedag	-5092
▁bekräft	-5093
▁sjun	-5094
gande	-5095
bilar	-5096
itik	-5097
▁pan	-5098
▁admin	-5099
▁Fick	-5100
ea	-5101
änderna	-5102
▁hinner	-5103
▁Ung	-5104
▁optim	-5105
▁korta	-5106
▁berör	-5107
▁öppnar	-5108
▁huvudsak	-5109
▁Tillsammans	-5110
▁rund	-5111
rapp	-5112
jag	-5113
▁sjö	-5114
▁SEK	-5115
▁Star	-5116
▁Casino	-5117
▁Vän	-5118
▁varma	-5119
angen	-5120
wa	-5121
▁håret	-5122
▁välkomna	-5123
▁deltagare	-5124
▁vist	-5125
service	-5126
▁önskemål	-5127
ekan	-5128
▁syns	-5129
box	-5130
▁fack	-5131
ugan	-5132
▁undan	-5133
skomm	-5134
▁mäss	-5135
allafall	-5136
xor	-5137
▁leta	-5138
▁presentera	-5139
.)	-5140
▁högst	-5141
styrelsen	-5142
que	-5143
▁förvar	-5144
▁slår	-5145
▁Johansson	-5146
▁)	-5147
▁Innan	-5148
▁ingrediens	-5149
▁kommuner	-5150
varo	-5151
▁Martin	-5152
▁bete	-5153
▁Na	-5154
▁dubbel	-5155
▁karaktär	-5156
▁Information	-5157
projekt	-5158
▁arbetat	-5159
ällen	-5160
vatten	-5161
▁motiv	-5162
giften	-5163
▁artiklar	-5164
▁cam	-5165
cer	-5166
▁Tyskland	-5167
▁skäl	-5168
▁magen	-5169
▁minns	-5170
▁Sweden	-5171
▁naturliga	-5172
▁gra	-5173
demokrat	-5174
yrå	-5175
nars	-5176
kontakt	-5177
▁butiken	-5178
▁Hela	-5179
cel	-5180
▁känslan	-5181
burg	-5182
lund	-5183
laget	-5184
▁tala	-5185
▁Foto	-5186
▁inköp	-5187
xt	-5188
anschen	-5189
▁Sna	-5190
▁perspektiv	-5191
▁rull	-5192
▁Pen	-5193
▁konstru	-5194
▁pedagog	-5195
▁Resultat	-5196
▁Lat	-5197
▁hyres	-5198
▁samhälle	-5199
▁ledare	-5200
troll	-5201
lista	-5202
▁tillfällen	-5203
▁tyst	-5204
▁dejtingsajter	-5205
SB	-5206
▁gol	-5207
▁träffar	-5208
▁Max	-5209
bell	-5210
▁Umeå	-5211
▁billig	-5212
atu	-5213
▁berg	-5214
▁stjärn	-5215
▁Spec	-5216
▁dollar	-5217
▁konser	-5218
▁pågår	-5219
indra	-5220
▁days	-5221
marknaden	-5222
▁separ	-5223
▁ökat	-5224
▁Något	-5225
▁kommentarer	-5226
vit	-5227
▁total	-5228
▁barnet	-5229
▁Utan	-5230
▁Daniel	-5231
vakt	-5232
▁hända	-5233
▁flickor	-5234
▁gräs	-5235
▁orkar	-5236
▁kunskaper	-5237
▁hom	-5238
▁mät	-5239
änker	-5240
eten	-5241
▁stranden	-5242
äde	-5243
▁Gener	-5244
vikt	-5245
▁rek	-5246
▁sand	-5247
▁ox	-5248
▁Gävle	-5249
delningen	-5250
▁tillstånd	-5251
▁oerhört	-5252
▁umg	-5253
▁kapital	-5254
kost	-5255
▁uppfy	-5256
juter	-5257
staden	-5258
▁Sal	-5259
▁okej	-5260
▁nakna	-5261
oppa	-5262
▁Stad	-5263
▁diskuter	-5264
aktion	-5265
▁äkta	-5266
▁Någon	-5267
▁Gro	-5268
ile	-5269
▁tycka	-5270
▁escorts	-5271
ere	-5272
stagram	-5273
▁politiska	-5274
▁personuppgifter	-5275
kör	-5276
▁tillb	-5277
hund	-5278
?!	-5279
▁berättade	-5280
önstret	-5281
IL	-5282
ING	-5283
set	-5284
▁kurser	-5285
▁kram	-5286
▁tår	-5287
▁terr	-5288
fyll	-5289
▁vila	-5290
tur	-5291
▁tillbehör	-5292
▁utrustning	-5293
slagen	-5294
▁resurser	-5295
▁åtgärder	-5296
CH	-5297
▁snarare	-5298
▁skid	-5299
▁Erotisk	-5300
▁Wh	-5301
isten	-5302
▁oför	-5303
äkerhet	-5304
▁hej	-5305
ient	-5306
OM	-5307
valt	-5308
▁media	-5309
90	-5310
▁respekt	-5311
▁potatis	-5312
▁brett	-5313
▁ställen	-5314
rister	-5315
▁planer	-5316
▁betalning	-5317
▁äm	-5318
▁banan	-5319
ycke	-5320
▁möjlig	-5321
2,	-5322
▁Vilket	-5323
▁åtminstone	-5324
▁Videos	-5325
▁doft	-5326
▁1000	-5327
▁knullar	-5328
▁privata	-5329
sprodukter	-5330
▁turn	-5331
▁=)	-5332
▁egenskaper	-5333
varor	-5334
▁muse	-5335
▁naturligt	-5336
▁Liv	-5337
fullt	-5338
▁hyra	-5339
▁cert	-5340
▁nere	-5341
intress	-5342
▁pär	-5343
fort	-5344
atet	-5345
almstad	-5346
▁resor	-5347
▁grundläggande	-5348
skraft	-5349
▁kontin	-5350
Vi	-5351
▁Met	-5352
▁Dr	-5353
▁hänga	-5354
leå	-5355
▁förhållande	-5356
▁framgångs	-5357
▁utö	-5358
▁hyr	-5359
▁https	-5360
jung	-5361
▁Dig	-5362
▁entrepren	-5363
IT	-5364
▁städer	-5365
▁åsikt	-5366
▁växa	-5367
dena	-5368
▁arg	-5369
▁varav	-5370
▁Rad	-5371
▁Jes	-5372
do	-5373
sluta	-5374
▁omöj	-5375
▁dricka	-5376
▁Totalt	-5377
▁student	-5378
ockey	-5379
-,	-5380
ylt	-5381
▁You	-5382
▁tju	-5383
▁grupper	-5384
använd	-5385
▁:-)	-5386
▁risken	-5387
▁stimul	-5388
▁tapp	-5389
aser	-5390
▁gröna	-5391
dustrin	-5392
▁bruk	-5393
▁levande	-5394
▁syss	-5395
▁lokaler	-5396
▁behövde	-5397
sund	-5398
fisk	-5399
▁funnits	-5400
▁og	-5401
jo	-5402
asy	-5403
AL	-5404
▁skaffa	-5405
andid	-5406
ges	-5407
histor	-5408
bi	-5409
▁London	-5410
▁chatt	-5411
▁Annars	-5412
icy	-5413
▁herr	-5414
▁Mogna	-5415
▁jack	-5416
▁rättigheter	-5417
ältet	-5418
▁iallafall	-5419
kul	-5420
otta	-5421
▁besv	-5422
▁vetenskap	-5423
rass	-5424
ax	-5425
▁leverantör	-5426
ladd	-5427
▁sjukhus	-5428
organis	-5429
konto	-5430
▁Cl	-5431
▁silver	-5432
löst	-5433
▁använt	-5434
då	-5435
▁makt	-5436
▁gif	-5437
▁milf	-5438
▁noggr	-5439
▁förhand	-5440
▁stolt	-5441
hopp	-5442
▁svåra	-5443
▁2000	-5444
▁jobbigt	-5445
▁version	-5446
ident	-5447
har	-5448
▁svag	-5449
unal	-5450
ävling	-5451
▁have	-5452
18	-5453
.000	-5454
▁engagemang	-5455
▁minskar	-5456
▁Andre	-5457
▁mött	-5458
▁San	-5459
ågan	-5460
▁kallt	-5461
▁offic	-5462
mos	-5463
▁vå	-5464
▁satsa	-5465
▁Is	-5466
pac	-5467
▁korrekt	-5468
▁samling	-5469
▁Gun	-5470
▁blom	-5471
vand	-5472
djur	-5473
ingarna	-5474
▁golf	-5475
▁räkna	-5476
▁naken	-5477
▁Mina	-5478
▁utvär	-5479
▁gruppen	-5480
▁illa	-5481
▁avsugning	-5482
▁qu	-5483
sfören	-5484
▁Nästa	-5485
▁födelsedag	-5486
▁förk	-5487
▁skull	-5488
brit	-5489
miär	-5490
▁hittills	-5491
▁utföra	-5492
▁tekniska	-5493
▁Ga	-5494
▁motstånd	-5495
mas	-5496
▁hant	-5497
▁Id	-5498
kurs	-5499
▁lagom	-5500
▁konse	-5501
▁Både	-5502
▁nyans	-5503
▁pool	-5504
äsk	-5505
▁varken	-5506
orget	-5507
nämn	-5508
▁befint	-5509
▁Åh	-5510
onom	-5511
▁slipper	-5512
▁heta	-5513
▁At	-5514
▁Haha	-5515
▁slit	-5516
▁vädret	-5517
▁seger	-5518
▁Kultur	-5519
▁personen	-5520
▁brist	-5521
▁känt	-5522
unnen	-5523
namn	-5524
mänt	-5525
öld	-5526
▁gemensamma	-5527
▁hast	-5528
hal	-5529
▁drift	-5530
ius	-5531
fir	-5532
kass	-5533
▁girls	-5534
▁gud	-5535
▁Vem	-5536
▁Ass	-5537
terat	-5538
▁jorden	-5539
▁utfor	-5540
sprocess	-5541
▁vända	-5542
karen	-5543
4,	-5544
▁kg	-5545
▁Net	-5546
!)	-5547
världen	-5548
▁hjärta	-5549
▁inkomst	-5550
britann	-5551
sport	-5552
▁tvungen	-5553
ove	-5554
▁månaden	-5555
▁Van	-5556
▁nyfiken	-5557
▁beskriver	-5558
▁snitt	-5559
RE	-5560
natt	-5561
▁utmaningar	-5562
▁erbjuds	-5563
▁fallet	-5564
▁Precis	-5565
centr	-5566
▁nöjda	-5567
umer	-5568
▁relig	-5569
▁återv	-5570
▁kolleg	-5571
ffektiv	-5572
▁City	-5573
1,	-5574
ational	-5575
▁spelat	-5576
▁positivt	-5577
▁3-	-5578
ange	-5579
core	-5580
▁faktum	-5581
▁Mich	-5582
byte	-5583
pot	-5584
▁belopp	-5585
▁stött	-5586
▁gn	-5587
▁institut	-5588
▁positiv	-5589
▁fria	-5590
verkade	-5591
▁slutar	-5592
▁ränt	-5593
▁hemsidan	-5594
▁tydligen	-5595
▁grunden	-5596
▁föreställ	-5597
▁Malm	-5598
▁Dagens	-5599
▁ägare	-5600
▁taget	-5601
ytande	-5602
sbe	-5603
▁journa	-5604
ament	-5605
nät	-5606
▁tisdag	-5607
▁from	-5608
▁surf	-5609
▁tillåt	-5610
9,	-5611
sätter	-5612
▁samla	-5613
▁arbetsplats	-5614
▁glass	-5615
▁metall	-5616
▁SK	-5617
iller	-5618
▁Årets	-5619
▁Do	-5620
stall	-5621
▁produkten	-5622
▁Hotel	-5623
ini	-5624
▁150	-5625
▁jämn	-5626
▁skru	-5627
▁rim	-5628
lit	-5629
▁positiva	-5630
▁Bel	-5631
▁sens	-5632
▁märkt	-5633
peiska	-5634
▁kors	-5635
▁Väx	-5636
▁äpp	-5637
▁sämre	-5638
▁målet	-5639
▁Pe	-5640
▁litter	-5641
▁Sara	-5642
osa	-5643
▁Gå	-5644
▁söta	-5645
▁Akt	-5646
▁statistik	-5647
ino	-5648
▁sköna	-5649
▁läste	-5650
▁vänder	-5651
▁julkla	-5652
kant	-5653
▁nyckel	-5654
platt	-5655
▁läkemedel	-5656
▁Tex	-5657
EL	-5658
▁sönder	-5659
▁kallar	-5660
▁längst	-5661
liv	-5662
beroende	-5663
▁tillhanda	-5664
▁tecken	-5665
▁mätt	-5666
▁född	-5667
oteborg	-5668
▁storlekar	-5669
▁hjärtat	-5670
▁evenemang	-5671
▁käns	-5672
▁utgång	-5673
ross	-5674
▁aktivt	-5675
▁Bes	-5676
▁försökte	-5677
▁skada	-5678
▁byggnad	-5679
En	-5680
▁singel	-5681
▁sven	-5682
ums	-5683
▁Perfekt	-5684
▁varor	-5685
ämpa	-5686
anien	-5687
prov	-5688
▁David	-5689
▁betalnings	-5690
▁Qu	-5691
rid	-5692
marknad	-5693
▁Ho	-5694
▁bestämde	-5695
▁enhet	-5696
spar	-5697
▁het	-5698
▁hundra	-5699
▁hels	-5700
▁fira	-5701
edda	-5702
▁tydlig	-5703
▁problemet	-5704
▁registrera	-5705
▁syd	-5706
▁möten	-5707
ley	-5708
▁coll	-5709
last	-5710
sbolag	-5711
▁Knull	-5712
erats	-5713
ivande	-5714
▁eventuella	-5715
änns	-5716
inen	-5717
▁uppen	-5718
visa	-5719
stöd	-5720
▁desto	-5721
▁tråkigt	-5722
▁rekr	-5723
▁Syd	-5724
ffekt	-5725
▁pga	-5726
▁Part	-5727
▁automatiskt	-5728
▁Play	-5729
anken	-5730
▁Ofta	-5731
▁Jap	-5732
▁strand	-5733
▁kast	-5734
anen	-5735
▁ug	-5736
▁Lö	-5737
rarna	-5738
oriter	-5739
▁patienter	-5740
språk	-5741
▁fång	-5742
▁överens	-5743
▁ögonen	-5744
▁intresserade	-5745
▁date	-5746
▁olyck	-5747
▁Led	-5748
▁Jack	-5749
▁York	-5750
▁sammanhang	-5751
itiativ	-5752
unna	-5753
▁långsikt	-5754
▁kreditkort	-5755
produkter	-5756
utera	-5757
umin	-5758
sken	-5759
läng	-5760
▁install	-5761
▁elektron	-5762
▁pul	-5763
näs	-5764
▁rapport	-5765
▁älskade	-5766
▁hann	-5767
stäm	-5768
▁inredning	-5769
▁medborg	-5770
usen	-5771
▁fris	-5772
▁Flera	-5773
▁mobilen	-5774
▁billigare	-5775
▁jap	-5776
▁miljön	-5777
▁tillfället	-5778
▁aktie	-5779
vak	-5780
▁Gar	-5781
▁VM	-5782
▁hjul	-5783
sr	-5784
▁Kro	-5785
▁grönt	-5786
▁nr	-5787
sland	-5788
resultat	-5789
meddel	-5790
klan	-5791
▁My	-5792
lösning	-5793
▁Int	-5794
▁36	-5795
gress	-5796
▁eleverna	-5797
▁Hotell	-5798
▁marknadsföring	-5799
▁minim	-5800
spart	-5801
iber	-5802
ikal	-5803
▁galler	-5804
▁Eg	-5805
rare	-5806
▁föresl	-5807
▁godis	-5808
CA	-5809
▁Sök	-5810
släpp	-5811
▁work	-5812
▁Bak	-5813
smiljö	-5814
▁laga	-5815
komp	-5816
▁genomföra	-5817
▁Skriv	-5818
åriga	-5819
▁Därefter	-5820
▁nödvändigt	-5821
▁skapat	-5822
ked	-5823
▁avgift	-5824
▁Storbritann	-5825
taget	-5826
▁upprätt	-5827
▁smar	-5828
ebra	-5829
ese	-5830
▁Frankrike	-5831
sättningen	-5832
▁Vilka	-5833
▁bu	-5834
▁författare	-5835
▁bära	-5836
▁övertyg	-5837
tion	-5838
inter	-5839
▁cy	-5840
fé	-5841
▁fritt	-5842
hone	-5843
funktion	-5844
▁fyr	-5845
▁Mag	-5846
ci	-5847
▁livsmedel	-5848
▁Jonas	-5849
▁Nilsson	-5850
lever	-5851
vä	-5852
▁Lad	-5853
▁aktiva	-5854
▁hemmet	-5855
fart	-5856
pas	-5857
▁uppmärksamhet	-5858
omma	-5859
ee	-5860
▁skåde	-5861
Mer	-5862
▁can	-5863
▁skador	-5864
▁krist	-5865
fel	-5866
bladet	-5867
▁låtar	-5868
▁tränar	-5869
serien	-5870
▁Air	-5871
▁Col	-5872
▁anlägg	-5873
▁kyck	-5874
▁flykt	-5875
▁Italien	-5876
▁Inga	-5877
▁intäkter	-5878
▁mikro	-5879
▁mult	-5880
▁klubben	-5881
▁Fören	-5882
▁enskilda	-5883
▁mol	-5884
blogg	-5885
▁framöver	-5886
botten	-5887
kra	-5888
▁nio	-5889
▁smid	-5890
▁södra	-5891
▁straff	-5892
▁sty	-5893
▁påm	-5894
igaste	-5895
smäss	-5896
▁föreningen	-5897
▁når	-5898
flykt	-5899
▁Off	-5900
steg	-5901
▁förändringar	-5902
▁minsta	-5903
uttar	-5904
▁skydda	-5905
▁upplever	-5906
▁överallt	-5907
▁para	-5908
▁195	-5909
häl	-5910
▁Avs	-5911
▁manad	-5912
▁politiker	-5913
arskap	-5914
19	-5915
kommande	-5916
▁framtida	-5917
glas	-5918
annar	-5919
▁movies	-5920
▁kyrkan	-5921
▁Lär	-5922
▁noga	-5923
kadem	-5924
▁eleg	-5925
uf	-5926
▁inre	-5927
äcken	-5928
▁400	-5929
cam	-5930
▁redovis	-5931
▁hänger	-5932
▁spelas	-5933
▁Ca	-5934
▁vardagen	-5935
▁Mel	-5936
▁termin	-5937
▁Po	-5938
▁fonder	-5939
▁Jäm	-5940
▁aktiver	-5941
▁hunden	-5942
strument	-5943
75	-5944
▁Moder	-5945
▁esc	-5946
▁Tycker	-5947
▁grå	-5948
▁uppmärksam	-5949
▁represen	-5950
▁Konst	-5951
▁trevliga	-5952
▁support	-5953
ivalen	-5954
▁längd	-5955
▁tidningen	-5956
▁beställning	-5957
▁miljarder	-5958
▁Lo	-5959
▁leverera	-5960
ordning	-5961
okal	-5962
▁rost	-5963
▁konstnär	-5964
kap	-5965
▁speg	-5966
▁pyss	-5967
lagt	-5968
▁studenter	-5969
▁dyker	-5970
enda	-5971
▁Hör	-5972
▁Trans	-5973
▁skjut	-5974
▁Inom	-5975
▁aning	-5976
▁Följ	-5977
▁medveten	-5978
▁Stefan	-5979
▁Sof	-5980
▁foto	-5981
day	-5982
istisk	-5983
▁rätta	-5984
▁sticka	-5985
▁sannolikt	-5986
▁intro	-5987
▁kop	-5988
▁tillväxt	-5989
hyr	-5990
ormor	-5991
▁omsorg	-5992
▁någonstans	-5993
▁Port	-5994
gubb	-5995
▁dörren	-5996
▁rub	-5997
▁häv	-5998
skat	-5999
▁kill	-6000
▁Bir	-6001
schef	-6002
▁banklan	-6003
▁fuck	-6004
▁bytt	-6005
bit	-6006
▁dalig	-6007
ordet	-6008
byggnad	-6009
▁ifall	-6010
▁fakta	-6011
▁lukt	-6012
▁föreb	-6013
verse	-6014
alit	-6015
stud	-6016
▁anses	-6017
▁driva	-6018
▁hell	-6019
▁onöd	-6020
▁vinner	-6021
▁block	-6022
▁hälften	-6023
▁svarar	-6024
▁regering	-6025
▁Ring	-6026
▁make	-6027
▁rec	-6028
▁röra	-6029
▁apotek	-6030
▁bestämmer	-6031
▁publik	-6032
▁rörelse	-6033
▁4.	-6034
ros	-6035
▁bjöd	-6036
▁parti	-6037
▁parkering	-6038
▁tävlingen	-6039
▁Bad	-6040
grupper	-6041
▁nått	-6042
nivå	-6043
▁op	-6044
dal	-6045
▁ul	-6046
entil	-6047
▁mun	-6048
vagn	-6049
irt	-6050
personer	-6051
▁grov	-6052
▁hände	-6053
▁Tror	-6054
ony	-6055
▁balkon	-6056
▁funderar	-6057
▁peppar	-6058
▁Verk	-6059
▁Swedish	-6060
▁gill	-6061
▁levererar	-6062
▁Nät	-6063
▁följd	-6064
▁debatt	-6065
▁gift	-6066
▁Beställa	-6067
▁diskutera	-6068
▁inslag	-6069
▁träffas	-6070
änger	-6071
▁logga	-6072
traf	-6073
må	-6074
▁Tekn	-6075
▁dejtingsida	-6076
ssätt	-6077
besök	-6078
▁invån	-6079
IF	-6080
▁tjänsten	-6081
räk	-6082
▁bostäder	-6083
▁Nakna	-6084
▁betrakt	-6085
ännen	-6086
▁ost	-6087
skt	-6088
säg	-6089
▁vap	-6090
▁kontant	-6091
▁Jul	-6092
söker	-6093
▁Däremot	-6094
område	-6095
OL	-6096
▁låga	-6097
▁flicka	-6098
▁leksaker	-6099
▁Bon	-6100
16	-6101
▁rese	-6102
äp	-6103
vil	-6104
▁dim	-6105
sätta	-6106
ader	-6107
▁mix	-6108
▁planerar	-6109
▁besvär	-6110
▁släppa	-6111
▁pratade	-6112
änsyn	-6113
olut	-6114
ikon	-6115
▁lämnade	-6116
▁bomull	-6117
▁prem	-6118
▁Utbild	-6119
ampor	-6120
▁bredvid	-6121
▁Spa	-6122
▁olja	-6123
▁förrän	-6124
▁Sten	-6125
▁använ	-6126
▁shopping	-6127
punkter	-6128
gu	-6129
älje	-6130
▁närmaste	-6131
▁helhet	-6132
▁rengör	-6133
▁kung	-6134
▁karriär	-6135
▁avgörande	-6136
▁artikeln	-6137
hot	-6138
--	-6139
ibel	-6140
▁jämföra	-6141
3,	-6142
▁repar	-6143
▁bolaget	-6144
▁Djur	-6145
▁kortare	-6146
▁ment	-6147
▁$	-6148
änkte	-6149
▁mobilt	-6150
▁perioden	-6151
oment	-6152
▁Rom	-6153
▁demokrat	-6154
▁passade	-6155
▁vanligaste	-6156
TT	-6157
▁hästar	-6158
onym	-6159
kro	-6160
sar	-6161
▁album	-6162
▁Sö	-6163
▁inner	-6164
andina	-6165
annonser	-6166
▁Bank	-6167
▁familje	-6168
▁systemet	-6169
gäng	-6170
▁Inne	-6171
▁viagra	-6172
▁tusen	-6173
ögon	-6174
▁vag	-6175
▁forskare	-6176
▁anord	-6177
▁längtar	-6178
▁fullständ	-6179
▁ersättning	-6180
▁webben	-6181
beh	-6182
▁trädgården	-6183
▁Storbritannien	-6184
▁duktig	-6185
bana	-6186
gångar	-6187
▁inomhus	-6188
pi	-6189
▁traditionella	-6190
▁Västerås	-6191
▁koncept	-6192
▁krydd	-6193
▁grad	-6194
änka	-6195
▁2009	-6196
▁sug	-6197
istan	-6198
▁Plan	-6199
▁normal	-6200
minister	-6201
▁bakgr	-6202
▁skar	-6203
ygd	-6204
▁Inter	-6205
▁Ac	-6206
▁främsta	-6207
▁kollektiv	-6208
ela	-6209
gas	-6210
äckar	-6211
▁varv	-6212
▁bestämma	-6213
▁Bild	-6214
▁Björn	-6215
lu	-6216
änsla	-6217
▁garanti	-6218
smed	-6219
▁Girl	-6220
igera	-6221
struktur	-6222
▁familjer	-6223
▁Will	-6224
terad	-6225
▁loss	-6226
24	-6227
▁trivs	-6228
gister	-6229
▁kallad	-6230
bad	-6231
▁bedriv	-6232
▁kära	-6233
▁skyld	-6234
aker	-6235
▁finna	-6236
tälje	-6237
▁utrymme	-6238
▁annons	-6239
▁ordet	-6240
▁appar	-6241
AD	-6242
▁75	-6243
emed	-6244
▁Titta	-6245
ily	-6246
dju	-6247
▁Sundsvall	-6248
▁will	-6249
▁förny	-6250
▁värsta	-6251
ES	-6252
▁ekonomiskt	-6253
▁undersöka	-6254
komma	-6255
▁dial	-6256
▁länken	-6257
▁förhoppningsvis	-6258
ensen	-6259
AM	-6260
▁klin	-6261
pre	-6262
▁lämn	-6263
▁Göteborgs	-6264
▁omgiv	-6265
▁Ryss	-6266
▁mening	-6267
▁läsare	-6268
▁gjord	-6269
ortt	-6270
▁tittade	-6271
änken	-6272
esh	-6273
jud	-6274
▁Webb	-6275
▁Micro	-6276
▁Kina	-6277
▁handen	-6278
▁offentlig	-6279
urt	-6280
▁black	-6281
▁yta	-6282
föring	-6283
▁kompisar	-6284
▁Produkt	-6285
▁Sing	-6286
▁lägenheter	-6287
träff	-6288
jol	-6289
▁kursen	-6290
▁förmån	-6291
▁grej	-6292
▁miljon	-6293
värda	-6294
▁undersökning	-6295
▁rem	-6296
▁bett	-6297
▁Tra	-6298
atisk	-6299
▁Lång	-6300
▁fet	-6301
▁texten	-6302
▁gemensamt	-6303
35	-6304
ädde	-6305
▁fäng	-6306
▁Ant	-6307
yper	-6308
blå	-6309
▁Blir	-6310
way	-6311
▁Mad	-6312
▁stads	-6313
▁af	-6314
▁beb	-6315
▁relev	-6316
11	-6317
▁kontrollera	-6318
▁utseende	-6319
butik	-6320
▁avst	-6321
alk	-6322
▁fantas	-6323
▁norra	-6324
▁golvet	-6325
▁förstör	-6326
▁Svart	-6327
▁Got	-6328
▁System	-6329
matt	-6330
BS	-6331
ness	-6332
▁major	-6333
stiden	-6334
▁bloggar	-6335
▁saknas	-6336
▁allmänt	-6337
▁Förra	-6338
▁ledig	-6339
AG	-6340
allen	-6341
böcker	-6342
▁ugnen	-6343
arch	-6344
▁Imorgon	-6345
öck	-6346
boken	-6347
▁Nedan	-6348
▁our	-6349
▁lärt	-6350
▁hoppa	-6351
▁Syftet	-6352
iserade	-6353
rätten	-6354
uch	-6355
▁administr	-6356
▁rejält	-6357
▁svenskt	-6358
▁kameran	-6359
▁SVT	-6360
▁kunden	-6361
▁dagligen	-6362
ble	-6363
▁skolor	-6364
ssons	-6365
änge	-6366
▁tjäna	-6367
▁förmed	-6368
ac	-6369
köpings	-6370
▁skott	-6371
▁ökade	-6372
▁krediter	-6373
▁fundera	-6374
slapp	-6375
▁tät	-6376
▁hänsyn	-6377
▁marken	-6378
ray	-6379
▁Ab	-6380
▁motiver	-6381
▁resul	-6382
▁förpack	-6383
▁toal	-6384
▁hantverk	-6385
▁omdöm	-6386
partiet	-6387
▁lill	-6388
▁eskorter	-6389
▁Mika	-6390
▁öster	-6391
cm	-6392
hämt	-6393
▁skiljer	-6394
▁volym	-6395
▁Förs	-6396
▁trygghet	-6397
▁Projekt	-6398
▁Magnus	-6399
▁klassisk	-6400
▁Paris	-6401
▁speciella	-6402
▁hat	-6403
▁handling	-6404
▁Live	-6405
▁finansinstitut	-6406
▁07	-6407
▁personligt	-6408
▁häft	-6409
▁Tel	-6410
▁styrka	-6411
▁represent	-6412
▁rädda	-6413
▁bos	-6414
▁konsumenter	-6415
▁besöker	-6416
RO	-6417
▁ort	-6418
▁servic	-6419
▁såå	-6420
▁brun	-6421
▁konsument	-6422
▁ätit	-6423
▁kyrk	-6424
▁kreativ	-6425
lle	-6426
valda	-6427
▁fjärde	-6428
ötterna	-6429
▁2008	-6430
▁Juli	-6431
▁sömn	-6432
▁omedelbart	-6433
▁inc	-6434
ängning	-6435
▁kommunal	-6436
▁Henrik	-6437
▁verkligheten	-6438
ästare	-6439
▁reserv	-6440
▁syr	-6441
ämpar	-6442
▁assist	-6443
banan	-6444
unskap	-6445
vill	-6446
hop	-6447
▁tusentals	-6448
▁befolk	-6449
▁intill	-6450
allad	-6451
▁flyttade	-6452
äste	-6453
▁arkitekt	-6454
▁bodde	-6455
ii	-6456
anal	-6457
▁förvärva	-6458
skilst	-6459
▁<3	-6460
▁Gamla	-6461
▁hälso	-6462
andinav	-6463
bef	-6464
▁enheter	-6465
▁Pri	-6466
innande	-6467
sträck	-6468
▁uppsala	-6469
skost	-6470
▁Kalmar	-6471
aterna	-6472
▁deb	-6473
▁smärt	-6474
▁32	-6475
▁mamm	-6476
ega	-6477
▁show	-6478
▁0,	-6479
utrym	-6480
▁Bilder	-6481
▁kamera	-6482
örja	-6483
▁Fre	-6484
▁ryggen	-6485
▁återf	-6486
uppl	-6487
▁alltför	-6488
▁Kul	-6489
paket	-6490
lades	-6491
spunkt	-6492
▁praktiskt	-6493
ringen	-6494
annan	-6495
sper	-6496
▁fla	-6497
▁situationer	-6498
▁relationer	-6499
▁påsk	-6500
▁eventuellt	-6501
bryt	-6502
▁landets	-6503
▁hinna	-6504
▁rekommendera	-6505
▁tyska	-6506
▁personalen	-6507
SL	-6508
▁ansiktet	-6509
branschen	-6510
▁Ne	-6511
▁tema	-6512
▁tål	-6513
indows	-6514
▁sekunder	-6515
▁faller	-6516
▁leka	-6517
▁tränings	-6518
▁Rör	-6519
▁Emma	-6520
▁konsekvens	-6521
▁komplett	-6522
▁vågar	-6523
▁Pub	-6524
▁Tom	-6525
▁Västra	-6526
▁imp	-6527
ding	-6528
▁flertal	-6529
sområden	-6530
▁milit	-6531
▁räknas	-6532
nare	-6533
▁retur	-6534
▁värder	-6535
▁@	-6536
▁more	-6537
▁mötet	-6538
sbr	-6539
▁vd	-6540
▁omfattar	-6541
kall	-6542
▁Avsugning	-6543
▁möbler	-6544
▁gård	-6545
▁färgen	-6546
▁Park	-6547
▁insatser	-6548
änningar	-6549
ftar	-6550
▁litteratur	-6551
huvud	-6552
ockar	-6553
▁avslapp	-6554
▁ämne	-6555
▁Ing	-6556
PS	-6557
▁lyfta	-6558
ännisk	-6559
▁plattform	-6560
▁inträff	-6561
ney	-6562
▁förtroende	-6563
skilstuna	-6564
sprojekt	-6565
▁Skicka	-6566
råket	-6567
▁Design	-6568
ötet	-6569
▁je	-6570
-6	-6571
öda	-6572
▁favoriter	-6573
▁frågade	-6574
▁webbläs	-6575
öjligheter	-6576
▁Spanien	-6577
▁osäker	-6578
▁vibr	-6579
ks	-6580
omin	-6581
jande	-6582
central	-6583
.....	-6584
▁sträck	-6585
▁fäst	-6586
▁händelser	-6587
utan	-6588
▁Håll	-6589
spa	-6590
ward	-6591
▁damm	-6592
▁speciell	-6593
▁Hitt	-6594
▁utnyttja	-6595
▁barns	-6596
▁planera	-6597
bolaget	-6598
jukdom	-6599
▁slott	-6600
▁Värm	-6601
ones	-6602
rep	-6603
▁uttal	-6604
rop	-6605
sfri	-6606
mäkt	-6607
ÄR	-6608
outube	-6609
▁bjuda	-6610
▁påbörj	-6611
▁Linköping	-6612
▁läder	-6613
itel	-6614
elsens	-6615
▁försökt	-6616
▁lät	-6617
▁hushåll	-6618
▁begär	-6619
▁uts	-6620
ush	-6621
▁kika	-6622
▁smidigt	-6623
▁styrelsen	-6624
ifiera	-6625
äger	-6626
egr	-6627
äkra	-6628
▁Big	-6629
▁Marie	-6630
mälan	-6631
▁gren	-6632
verktyg	-6633
▁Ener	-6634
enhamn	-6635
▁Mats	-6636
tog	-6637
skåp	-6638
▁Samt	-6639
ination	-6640
▁kvalité	-6641
holmen	-6642
con	-6643
▁Häll	-6644
▁arbetsl	-6645
ath	-6646
dition	-6647
▁Sexleksaker	-6648
▁Alltså	-6649
▁sked	-6650
▁träffade	-6651
alj	-6652
▁Xxx	-6653
▁saken	-6654
▁utöver	-6655
▁sprid	-6656
▁ansvarar	-6657
▁sjukvård	-6658
▁Beh	-6659
drarna	-6660
förbundet	-6661
▁initiativ	-6662
cir	-6663
▁offentliga	-6664
maskiner	-6665
▁jo	-6666
▁Pet	-6667
kes	-6668
▁koncentr	-6669
ssan	-6670
▁00	-6671
▁Lag	-6672
åndet	-6673
värdighet	-6674
▁lätta	-6675
design	-6676
▁bast	-6677
-5	-6678
▁alternativt	-6679
▁landsting	-6680
▁skönhet	-6681
▁Eva	-6682
▁set	-6683
rom	-6684
▁Kron	-6685
▁dåliga	-6686
kal	-6687
cken	-6688
ij	-6689
▁elev	-6690
delsen	-6691
▁sover	-6692
17	-6693
▁samlat	-6694
▁praktiska	-6695
▁grejer	-6696
mes	-6697
sspel	-6698
För	-6699
▁helsingborg	-6700
▁teater	-6701
▁allting	-6702
elefoner	-6703
▁vägar	-6704
▁Jönköping	-6705
▁mysig	-6706
▁Måste	-6707
▁luften	-6708
▁trosor	-6709
skron	-6710
▁inkluderar	-6711
▁nationella	-6712
olly	-6713
▁orsa	-6714
▁IK	-6715
▁fal	-6716
▁datorer	-6717
95	-6718
info	-6719
▁sägs	-6720
EA	-6721
▁fra	-6722
skole	-6723
▁pack	-6724
▁billigaste	-6725
▁begrepp	-6726
försäljare	-6727
▁samlar	-6728
▁Mobil	-6729
landet	-6730
områden	-6731
litter	-6732
▁sorg	-6733
▁behålla	-6734
▁synd	-6735
▁bön	-6736
▁beröm	-6737
▁sms	-6738
▁levereras	-6739
▁Redan	-6740
antra	-6741
alle	-6742
▁Hal	-6743
försäkring	-6744
▁flyttar	-6745
▁amat	-6746
dcore	-6747
▁anslutning	-6748
▁döm	-6749
▁illustr	-6750
▁Sjö	-6751
▁Comm	-6752
36	-6753
ame	-6754
▁uppm	-6755
▁one	-6756
▁sådär	-6757
▁franska	-6758
▁Si	-6759
▁typen	-6760
risk	-6761
ocken	-6762
ettider	-6763
▁tol	-6764
▁Beställ	-6765
▁ert	-6766
lac	-6767
▁exp	-6768
▁värmen	-6769
▁recensioner	-6770
äkare	-6771
▁250	-6772
▁nerv	-6773
▁stämmer	-6774
▁hemm	-6775
▁Billig	-6776
tai	-6777
▁Jämför	-6778
▁Inköp	-6779
öljer	-6780
▁utrust	-6781
spelet	-6782
denafil	-6783
▁svenskar	-6784
▁bekym	-6785
▁stannar	-6786
▁Start	-6787
▁park	-6788
ävar	-6789
▁Rätt	-6790
ebro	-6791
ådan	-6792
▁Skär	-6793
▁egendom	-6794
▁utvecklar	-6795
sfär	-6796
▁Fel	-6797
▁entr	-6798
▁bag	-6799
vetenskap	-6800
▁refle	-6801
▁avslöj	-6802
▁desig	-6803
▁frågar	-6804
▁rök	-6805
▁skulder	-6806
▁Rikt	-6807
sbruk	-6808
tals	-6809
▁Dis	-6810
▁iPhone	-6811
▁värre	-6812
▁inse	-6813
▁foton	-6814
.30	-6815
▁original	-6816
ppet	-6817
naderna	-6818
▁Kolla	-6819
lut	-6820
▁Kost	-6821
▁Thomas	-6822
▁gymnasie	-6823
ärta	-6824
▁diverse	-6825
▁expert	-6826
▁Istället	-6827
▁bio	-6828
asa	-6829
bal	-6830
▁dygnet	-6831
▁attrakt	-6832
liggande	-6833
ubl	-6834
pacitet	-6835
▁drivs	-6836
▁Real	-6837
▁Slut	-6838
22	-6839
▁hamnade	-6840
jord	-6841
▁tip	-6842
▁planering	-6843
▁välk	-6844
atiska	-6845
bordet	-6846
▁Je	-6847
rak	-6848
▁strategi	-6849
▁teor	-6850
▁försvinner	-6851
▁Gusta	-6852
▁rena	-6853
sområdet	-6854
▁Rober	-6855
lök	-6856
uxen	-6857
14	-6858
▁britt	-6859
▁reser	-6860
▁kassa	-6861
astro	-6862
▁Nov	-6863
▁big	-6864
▁föreg	-6865
servera	-6866
▁banker	-6867
▁närm	-6868
▁deltar	-6869
▁regelbundet	-6870
▁motion	-6871
▁smarta	-6872
-10	-6873
▁IP	-6874
▁Självklart	-6875
▁Ax	-6876
▁bus	-6877
▁sajten	-6878
▁blogga	-6879
lån	-6880
▁utomlands	-6881
stekn	-6882
▁55	-6883
▁trend	-6884
▁nyår	-6885
▁koppla	-6886
▁II	-6887
▁utmaning	-6888
▁sovrum	-6889
▁kris	-6890
låt	-6891
▁motsvarande	-6892
▁piz	-6893
▁Vatten	-6894
sstil	-6895
ustra	-6896
brik	-6897
duk	-6898
▁gyn	-6899
▁tillämp	-6900
▁blad	-6901
skande	-6902
▁08	-6903
▁Tidigare	-6904
▁snäll	-6905
värme	-6906
▁kategorin	-6907
▁linje	-6908
ografi	-6909
hailand	-6910
ärare	-6911
▁paus	-6912
▁mjuka	-6913
▁näringsl	-6914
▁minne	-6915
▁Utöver	-6916
▁processen	-6917
skare	-6918
▁allmänhet	-6919
amål	-6920
▁lediga	-6921
▁Blev	-6922
▁Stat	-6923
▁bekant	-6924
▁veter	-6925
uminium	-6926
▁Åter	-6927
▁tillägg	-6928
▁ovanligt	-6929
▁kontanter	-6930
▁stall	-6931
▁stats	-6932
▁jättebra	-6933
▁närmast	-6934
▁stärka	-6935
EK	-6936
▁förekommer	-6937
rafiken	-6938
båt	-6939
▁still	-6940
esp	-6941
åring	-6942
▁spins	-6943
▁träningen	-6944
▁kvinnan	-6945
fy	-6946
olin	-6947
ssp	-6948
▁förklara	-6949
▁spendera	-6950
nor	-6951
jäll	-6952
▁Porno	-6953
▁kommunens	-6954
malm	-6955
ng	-6956
▁lack	-6957
▁kandid	-6958
sna	-6959
▁ventil	-6960
▁lämnat	-6961
▁blandning	-6962
▁tw	-6963
▁Inget	-6964
▁kompon	-6965
▁rekord	-6966
▁storm	-6967
▁Jobb	-6968
▁plåt	-6969
▁myndigheter	-6970
wn	-6971
▁lördagen	-6972
▁situationen	-6973
▁missl	-6974
ili	-6975
teknik	-6976
▁vaknade	-6977
grän	-6978
▁kollegor	-6979
tagen	-6980
ången	-6981
priset	-6982
▁Jen	-6983
▁box	-6984
▁fokusera	-6985
▁1:	-6986
▁besikt	-6987
▁tillverkar	-6988
▁Enda	-6989
undersök	-6990
▁eventuell	-6991
▁växter	-6992
▁kollade	-6993
▁sant	-6994
▁kläd	-6995
▁kilometer	-6996
▁eld	-6997
ustrali	-6998
▁tav	-6999
▁kontinuer	-7000
▁upplevelser	-7001
▁minut	-7002
▁ky	-7003
▁önska	-7004
▁camp	-7005
ited	-7006
örerna	-7007
▁Söker	-7008
ugh	-7009
▁myndighet	-7010
▁kraftigt	-7011
ställda	-7012
▁suger	-7013
ani	-7014
▁använde	-7015
phone	-7016
▁föremål	-7017
▁runda	-7018
▁överväg	-7019
▁minuters	-7020
bot	-7021
artik	-7022
▁måla	-7023
▁Rum	-7024
▁fält	-7025
▁glömma	-7026
▁lant	-7027
måga	-7028
▁skoj	-7029
▁texter	-7030
▁duktiga	-7031
▁svårare	-7032
▁uppnå	-7033
▁Cre	-7034
▁undantag	-7035
ody	-7036
▁Kort	-7037
flytt	-7038
▁trapp	-7039
sområde	-7040
▁Ryssland	-7041
fast	-7042
öckerna	-7043
vag	-7044
▁lägenheten	-7045
▁verklighet	-7046
alternativ	-7047
ced	-7048
▁Känns	-7049
troller	-7050
▁garn	-7051
▁innehållet	-7052
▁aktörer	-7053
▁Boken	-7054
▁bitar	-7055
▁locka	-7056
▁tax	-7057
▁emellan	-7058
▁Få	-7059
▁Nik	-7060
syn	-7061
▁lösen	-7062
▁dram	-7063
utik	-7064
▁rens	-7065
▁hellre	-7066
▁guide	-7067
light	-7068
▁pil	-7069
▁bott	-7070
▁tränare	-7071
▁omöjligt	-7072
▁SP	-7073
ms	-7074
▁oxå	-7075
▁Nyheter	-7076
▁Hö	-7077
▁göm	-7078
tet	-7079
rats	-7080
▁Gay	-7081
▁Rob	-7082
▁tonåring	-7083
▁Lesb	-7084
rit	-7085
▁Sund	-7086
omb	-7087
▁inser	-7088
▁Snart	-7089
ife	-7090
▁benen	-7091
▁väggen	-7092
▁kännas	-7093
▁kontrakt	-7094
▁Mån	-7095
▁vät	-7096
SM	-7097
▁kant	-7098
▁look	-7099
ektion	-7100
HL	-7101
▁ämnet	-7102
▁kvad	-7103
skurs	-7104
▁sprang	-7105
▁halva	-7106
▁list	-7107
▁mormor	-7108
▁företagets	-7109
my	-7110
▁Kur	-7111
resor	-7112
▁vapen	-7113
▁3,	-7114
▁Borås	-7115
▁Wik	-7116
▁totala	-7117
pten	-7118
▁let	-7119
▁utbildningen	-7120
▁Hell	-7121
▁dum	-7122
▁forsknings	-7123
▁Larsson	-7124
TM	-7125
▁förståelse	-7126
▁happy	-7127
ffs	-7128
▁PC	-7129
▁diagn	-7130
▁garder	-7131
ml	-7132
rump	-7133
▁casin	-7134
▁mids	-7135
▁England	-7136
stil	-7137
▁gul	-7138
▁uppman	-7139
▁verksamheter	-7140
ationerna	-7141
▁branschen	-7142
▁anmälan	-7143
▁dikt	-7144
▁Gö	-7145
finans	-7146
▁domin	-7147
▁tillför	-7148
▁förväg	-7149
trakt	-7150
emp	-7151
▁kyckling	-7152
▁bussen	-7153
▁slippa	-7154
▁karl	-7155
▁historien	-7156
arium	-7157
▁ideal	-7158
▁Fler	-7159
▁fo	-7160
▁SD	-7161
▁Lid	-7162
▁reduc	-7163
/2	-7164
ologiskt	-7165
▁premiär	-7166
▁fasc	-7167
▁meddelande	-7168
▁presenterar	-7169
▁oj	-7170
▁Älskar	-7171
usiness	-7172
▁varierar	-7173
▁specifika	-7174
ljus	-7175
▁der	-7176
fon	-7177
igar	-7178
obby	-7179
▁Angel	-7180
▁läget	-7181
▁new	-7182
▁hållbarhet	-7183
▁presenter	-7184
▁us	-7185
▁präg	-7186
visor	-7187
▁order	-7188
oped	-7189
▁rit	-7190
▁city	-7191
An	-7192
▁Hy	-7193
▁domstol	-7194
▁ekonomisk	-7195
48	-7196
▁over	-7197
▁sval	-7198
stjärn	-7199
aner	-7200
▁koka	-7201
strand	-7202
▁anmäla	-7203
▁isol	-7204
▁ringde	-7205
spris	-7206
▁bakt	-7207
orp	-7208
▁Glöm	-7209
ript	-7210
▁Företaget	-7211
▁besked	-7212
▁lagar	-7213
7,	-7214
▁Hed	-7215
▁eftermiddag	-7216
▁allmänna	-7217
skog	-7218
väst	-7219
information	-7220
▁effektiva	-7221
god	-7222
▁roligare	-7223
inarie	-7224
▁tävlingar	-7225
▁Ger	-7226
▁rekry	-7227
linjer	-7228
▁fortsatte	-7229
▁gjordes	-7230
osex	-7231
▁lämplig	-7232
▁användar	-7233
▁tomt	-7234
▁Blanda	-7235
enskomm	-7236
▁civ	-7237
▁instru	-7238
▁tillfred	-7239
▁mel	-7240
▁Övr	-7241
▁dog	-7242
▁blanda	-7243
▁65	-7244
▁utbildnings	-7245
▁Instagram	-7246
▁marker	-7247
▁sweden	-7248
ulture	-7249
▁utgår	-7250
meter	-7251
▁tolv	-7252
▁Bli	-7253
▁läck	-7254
▁snur	-7255
betalningar	-7256
▁fysiska	-7257
sgatan	-7258
▁lyssnar	-7259
▁VD	-7260
▁testat	-7261
ivis	-7262
oppen	-7263
▁kompletter	-7264
▁efteråt	-7265
▁Watch	-7266
▁faktorer	-7267
▁delas	-7268
skrona	-7269
▁umgås	-7270
onde	-7271
▁sexig	-7272
emale	-7273
ivån	-7274
ls	-7275
▁ovänt	-7276
▁penis	-7277
ned	-7278
▁ställning	-7279
▁äng	-7280
▁återigen	-7281
6,	-7282
▁ansvarig	-7283
TV	-7284
▁uppstår	-7285
efte	-7286
▁Gru	-7287
▁bibliotek	-7288
▁enormt	-7289
öjor	-7290
dage	-7291
kvalit	-7292
▁släpper	-7293
ime	-7294
sås	-7295
▁Ör	-7296
▁kört	-7297
ullen	-7298
▁tyn	-7299
▁Program	-7300
ribut	-7301
▁mörka	-7302
▁LED	-7303
▁dryck	-7304
▁utställning	-7305
▁kontakter	-7306
ero	-7307
▁variera	-7308
▁Snabb	-7309
oper	-7310
ampan	-7311
ppna	-7312
▁naturlig	-7313
▁självständ	-7314
13	-7315
▁cialis	-7316
▁jordgubb	-7317
▁sexfilm	-7318
▁ingredienser	-7319
▁teen	-7320
▁ångest	-7321
iget	-7322
▁VI	-7323
▁Lek	-7324
ience	-7325
▁dos	-7326
svägen	-7327
▁föredrar	-7328
▁videon	-7329
sföretag	-7330
ningens	-7331
behandling	-7332
▁anstr	-7333
ool	-7334
hlm	-7335
▁folket	-7336
slin	-7337
▁grönsaker	-7338
▁inspirerande	-7339
▁Karlstad	-7340
▁poker	-7341
ano	-7342
▁skrift	-7343
▁Norrköping	-7344
jörn	-7345
▁appen	-7346
▁andas	-7347
▁styra	-7348
▁Ditt	-7349
▁fastigheter	-7350
▁presenteras	-7351
▁Region	-7352
▁särskilda	-7353
▁betalas	-7354
sug	-7355
▁avseende	-7356
▁informationen	-7357
▁Brun	-7358
▁dagliga	-7359
▁affärer	-7360
▁Andreas	-7361
▁aktuell	-7362
eur	-7363
lister	-7364
▁(3	-7365
koppling	-7366
osof	-7367
-11	-7368
▁Out	-7369
programmet	-7370
▁blått	-7371
ally	-7372
▁uppfölj	-7373
play	-7374
▁600	-7375
▁starkare	-7376
jas	-7377
ÖR	-7378
▁biljetter	-7379
roid	-7380
▁hårda	-7381
▁förvå	-7382
▁charm	-7383
▁organ	-7384
▁Hå	-7385
▁Windows	-7386
värk	-7387
▁styrelse	-7388
▁tuttar	-7389
▁expl	-7390
▁jurid	-7391
▁facebook	-7392
▁säkerställa	-7393
gick	-7394
▁registrering	-7395
▁Paul	-7396
▁kvadrat	-7397
▁förklarar	-7398
-12	-7399
aljer	-7400
▁verkliga	-7401
▁troligen	-7402
The	-7403
▁tok	-7404
▁kommunic	-7405
▁romant	-7406
vision	-7407
▁pren	-7408
ivan	-7409
hjul	-7410
df	-7411
elserna	-7412
▁invånare	-7413
iew	-7414
▁närings	-7415
▁matte	-7416
▁komfort	-7417
▁drömmar	-7418
▁befintliga	-7419
▁utbildningar	-7420
▁Går	-7421
▁Ry	-7422
▁bubb	-7423
jort	-7424
▁räd	-7425
▁handlade	-7426
▁ambition	-7427
▁Vit	-7428
▁Team	-7429
▁förbund	-7430
ianter	-7431
▁Ström	-7432
▁Porrfilm	-7433
▁varumärken	-7434
▁Hennes	-7435
▁konsult	-7436
▁lyft	-7437
▁begag	-7438
▁Mc	-7439
▁bedömning	-7440
▁dörr	-7441
kontor	-7442
elle	-7443
vig	-7444
▁skärm	-7445
▁raka	-7446
ekul	-7447
▁praktik	-7448
▁Deras	-7449
▁vinster	-7450
▁förmid	-7451
▁Mikael	-7452
▁hundrat	-7453
ripande	-7454
▁nav	-7455
▁formulär	-7456
▁tel	-7457
inger	-7458
▁behandlar	-7459
kamera	-7460
problem	-7461
▁aspekt	-7462
dagens	-7463
▁Halmstad	-7464
▁Apple	-7465
▁stoppa	-7466
iox	-7467
olt	-7468
▁Karlsson	-7469
▁klätt	-7470
värm	-7471
▁Ren	-7472
▁Karin	-7473
▁tunga	-7474
▁populärt	-7475
sål	-7476
pad	-7477
skam	-7478
▁skyddar	-7479
▁tydliga	-7480
▁priserna	-7481
häng	-7482
byggd	-7483
▁don	-7484
järna	-7485
▁smått	-7486
ission	-7487
▁cancer	-7488
▁döda	-7489
ios	-7490
adress	-7491
▁konflikt	-7492
redit	-7493
enhet	-7494
ivitet	-7495
▁World	-7496
ians	-7497
▁Luleå	-7498
hr	-7499
ortera	-7500
▁anpassa	-7501
▁Läng	-7502
▁gräns	-7503
usten	-7504
▁inriktning	-7505
ografiska	-7506
▁räknar	-7507
▁finaste	-7508
▁38	-7509
▁godkänner	-7510
äckande	-7511
▁förvand	-7512
ikar	-7513
▁komplex	-7514
▁Mellan	-7515
▁stre	-7516
▁5.	-7517
▁velat	-7518
▁ye	-7519
▁liter	-7520
▁hd	-7521
itch	-7522
▁gården	-7523
▁byggt	-7524
▁etik	-7525
▁kritik	-7526
▁kollar	-7527
▁inkom	-7528
▁Stra	-7529
sre	-7530
▁bekvämt	-7531
▁pussy	-7532
▁Mac	-7533
▁låten	-7534
▁hörn	-7535
▁hålls	-7536
site	-7537
▁uppåt	-7538
▁följt	-7539
▁Center	-7540
▁gas	-7541
andes	-7542
▁möjligen	-7543
▁örebro	-7544
▁åsikter	-7545
skolor	-7546
styrka	-7547
års	-7548
▁äld	-7549
▁kvalific	-7550
ivna	-7551
▁tycks	-7552
ael	-7553
▁nybörj	-7554
jakt	-7555
▁Can	-7556
oppar	-7557
cykel	-7558
▁föddes	-7559
▁föra	-7560
▁2017.	-7561
▁Bur	-7562
▁unikt	-7563
▁maskiner	-7564
▁utvalda	-7565
▁rekommenderas	-7566
▁avstånd	-7567
ares	-7568
▁citron	-7569
▁Ok	-7570
▁prenumer	-7571
▁summa	-7572
▁fågel	-7573
▁Bre	-7574
▁förändra	-7575
▁ansikte	-7576
▁rock	-7577
▁West	-7578
jack	-7579
▁sorts	-7580
järt	-7581
värde	-7582
▁omständ	-7583
▁tacka	-7584
serligen	-7585
▁Trafik	-7586
▁Aut	-7587
enta	-7588
gym	-7589
▁Vidare	-7590
▁hörde	-7591
ornas	-7592
▁reag	-7593
▁insättning	-7594
▁ever	-7595
wood	-7596
miljö	-7597
▁mänskliga	-7598
▁sprida	-7599
▁kärn	-7600
▁vunnit	-7601
▁garanterat	-7602
▁hun	-7603
kär	-7604
▁kreditvärdighet	-7605
▁Lan	-7606
▁Ljus	-7607
inlägg	-7608
▁Bengt	-7609
idrag	-7610
▁behandla	-7611
betyg	-7612
▁33	-7613
▁Nat	-7614
bank	-7615
▁sjukdomar	-7616
▁Eli	-7617
ifiering	-7618
änningen	-7619
▁fredags	-7620
▁ledning	-7621
rael	-7622
ames	-7623
▁Känner	-7624
OT	-7625
▁fred	-7626
ene	-7627
agar	-7628
▁One	-7629
▁syftar	-7630
issar	-7631
▁pod	-7632
▁intryck	-7633
▁DN	-7634
dör	-7635
▁Ly	-7636
▁prioriter	-7637
▁sparar	-7638
▁prom	-7639
▁Veg	-7640
▁sammanfatt	-7641
ave	-7642
▁Vack	-7643
▁uppdatera	-7644
▁analyser	-7645
▁Ag	-7646
mosfär	-7647
▁suga	-7648
▁Resultatet	-7649
itim	-7650
vok	-7651
▁irri	-7652
▁nyss	-7653
▁delvis	-7654
▁glömt	-7655
▁diskussion	-7656
▁fördju	-7657
▁Web	-7658
cus	-7659
▁varenda	-7660
mak	-7661
▁Sel	-7662
▁sjuksköter	-7663
▁fruktans	-7664
▁ris	-7665
frika	-7666
▁passion	-7667
▁löne	-7668
sbygg	-7669
yndigheten	-7670
▁uppmunt	-7671
▁djupt	-7672
edom	-7673
▁aluminium	-7674
▁lim	-7675
listan	-7676
▁Amat	-7677
▁ryska	-7678
▁eftermiddagen	-7679
▁lärande	-7680
oli	-7681
▁skräm	-7682
▁miner	-7683
▁packa	-7684
-15	-7685
tain	-7686
ästen	-7687
▁Victor	-7688
▁oblig	-7689
▁Huvud	-7690
▁humor	-7691
▁oberoende	-7692
▁internationellt	-7693
▁färre	-7694
▁jäk	-7695
▁faktur	-7696
ders	-7697
åå	-7698
blog	-7699
▁Eriksson	-7700
vitt	-7701
▁internationell	-7702
▁graf	-7703
▁blond	-7704
▁aller	-7705
▁bordet	-7706
likationer	-7707
fi	-7708
▁måltid	-7709
▁Bal	-7710
▁knappast	-7711
kvalitet	-7712
▁Ali	-7713
▁därifrån	-7714
▁såhär	-7715
▁samlas	-7716
▁räck	-7717
▁domän	-7718
▁Don	-7719
▁Filmer	-7720
ämnen	-7721
▁kampanj	-7722
▁Volv	-7723
▁diam	-7724
▁primär	-7725
ylar	-7726
yrån	-7727
▁Jätt	-7728
äta	-7729
▁ack	-7730
▁munnen	-7731
dit	-7732
▁tillverkad	-7733
yer	-7734
rog	-7735
▁lott	-7736
▁noll	-7737
äddars	-7738
▁jobbade	-7739
▁inst	-7740
spass	-7741
▁Plus	-7742
isterna	-7743
ous	-7744
▁Jos	-7745
ole	-7746
▁planen	-7747
▁mats	-7748
ktorn	-7749
▁34	-7750
ua	-7751
entlig	-7752
▁Rec	-7753
aritet	-7754
sajter	-7755
AB	-7756
▁dygn	-7757
gått	-7758
yrkan	-7759
pool	-7760
▁livsstil	-7761
▁Gillar	-7762
sbrev	-7763
vention	-7764
▁siffror	-7765
▁beslutet	-7766
▁Amer	-7767
seg	-7768
▁194	-7769
▁Gustav	-7770
▁ledigt	-7771
▁kyrka	-7772
▁bror	-7773
▁grymt	-7774
une	-7775
gjor	-7776
▁gang	-7777
▁gamm	-7778
▁traditionell	-7779
anke	-7780
▁Ter	-7781
no	-7782
▁tall	-7783
▁Samma	-7784
▁Mor	-7785
göt	-7786
orma	-7787
aks	-7788
▁Växjö	-7789
▁ap	-7790
▁Eric	-7791
▁inspel	-7792
▁taket	-7793
▁spelautom	-7794
▁final	-7795
▁Jesus	-7796
▁finansier	-7797
ämna	-7798
▁förändras	-7799
sy	-7800
▁mal	-7801
egräns	-7802
▁Senaste	-7803
▁ep	-7804
▁Ytter	-7805
▁succ	-7806
skrifter	-7807
▁intell	-7808
▁skapade	-7809
▁formen	-7810
▁café	-7811
▁trycka	-7812
inte	-7813
▁hinder	-7814
ages	-7815
▁Passar	-7816
▁licens	-7817
åren	-7818
▁Exempel	-7819
▁kvitt	-7820
▁drabbas	-7821
▁stadens	-7822
▁beteende	-7823
▁arbetsgivare	-7824
▁utsatt	-7825
▁rött	-7826
▁cl	-7827
▁instrument	-7828
disk	-7829
▁ringer	-7830
iserar	-7831
▁klänning	-7832
demokraterna	-7833
uti	-7834
motor	-7835
▁Fakt	-7836
▁lågt	-7837
vad	-7838
▁referens	-7839
däck	-7840
▁ytan	-7841
▁genast	-7842
▁sexuella	-7843
▁Milj	-7844
▁gitar	-7845
ningsk	-7846
▁byn	-7847
▁1,5	-7848
▁Emil	-7849
▁Pop	-7850
▁Mode	-7851
efteå	-7852
▁Dam	-7853
▁kalender	-7854
▁Värld	-7855
meddelande	-7856
ssam	-7857
▁2007	-7858
▁hälsos	-7859
innen	-7860
▁kniv	-7861
▁tvingas	-7862
▁relat	-7863
▁lastbil	-7864
-4	-7865
▁försiktigt	-7866
▁lovar	-7867
▁löpande	-7868
ict	-7869
▁Linda	-7870
▁IS	-7871
ipend	-7872
▁säljs	-7873
tas	-7874
▁mkt	-7875
▁Kvinna	-7876
▁pigg	-7877
▁Form	-7878
▁OS	-7879
▁ansöka	-7880
imin	-7881
▁Bu	-7882
▁Bolag	-7883
▁miljöer	-7884
▁riskerar	-7885
eed	-7886
▁byggnader	-7887
▁professionell	-7888
▁ögonblick	-7889
▁församling	-7890
▁kräm	-7891
▁fynd	-7892
▁certifier	-7893
▁est	-7894
▁producera	-7895
▁fyllt	-7896
riker	-7897
▁inb	-7898
öde	-7899
sajt	-7900
▁söndagen	-7901
▁frihet	-7902
produktion	-7903
▁felakt	-7904
eman	-7905
▁Mamma	-7906
viken	-7907
▁Fun	-7908
▁flash	-7909
▁check	-7910
▁Kör	-7911
▁impon	-7912
▁sop	-7913
▁skal	-7914
21	-7915
-20	-7916
▁dialog	-7917
▁sänd	-7918
▁Lör	-7919
▁kines	-7920
▁Bostad	-7921
▁Esc	-7922
▁underlag	-7923
GB	-7924
resten	-7925
▁Lever	-7926
▁färdiga	-7927
▁båten	-7928
▁Båda	-7929
▁Top	-7930
▁bryta	-7931
▁format	-7932
!!!!	-7933
▁Turk	-7934
rin	-7935
▁särskild	-7936
▁omt	-7937
▁publiken	-7938
▁Persson	-7939
dig	-7940
▁upplag	-7941
ary	-7942
jänster	-7943
▁Japan	-7944
▁cont	-7945
▁missa	-7946
▁Fyll	-7947
▁attack	-7948
▁48	-7949
▁uppskattar	-7950
▁poly	-7951
▁öppettider	-7952
▁europeiska	-7953
uel	-7954
▁krimin	-7955
▁Skog	-7956
▁behandlas	-7957
▁demon	-7958
▁angående	-7959
▁exklusiva	-7960
▁120	-7961
valla	-7962
▁stream	-7963
▁satsar	-7964
▁springer	-7965
trän	-7966
▁företagen	-7967
orse	-7968
▁händelse	-7969
▁Logga	-7970
▁skaff	-7971
▁kärleken	-7972
▁Public	-7973
▁lördags	-7974
park	-7975
yld	-7976
upplevelse	-7977
urer	-7978
éer	-7979
▁sidorna	-7980
▁lösenord	-7981
▁anläggning	-7982
▁antagligen	-7983
▁föll	-7984
ical	-7985
▁grattis	-7986
fit	-7987
▁EM	-7988
▁gjorda	-7989
förbund	-7990
klipp	-7991
▁Wall	-7992
▁landskap	-7993
▁läsk	-7994
ota	-7995
sko	-7996
▁musiken	-7997
▁förlag	-7998
▁Tag	-7999
▁Kam	-8000
▁uttr	-8001
▁svett	-8002
TA	-8003
▁Lena	-8004
▁get	-8005
▁Phil	-8006
▁framme	-8007
▁förber	-8008
▁Mogen	-8009
▁stack	-8010
hantering	-8011
lip	-8012
▁avfall	-8013
▁leds	-8014
eriet	-8015
▁historiska	-8016
▁Dem	-8017
▁FN	-8018
▁anledningen	-8019
app	-8020
▁riksdag	-8021
▁konstruktion	-8022
ställer	-8023
▁aren	-8024
▁Material	-8025
▁knä	-8026
IC	-8027
▁läggs	-8028
?)	-8029
▁Hanna	-8030
▁national	-8031
båg	-8032
▁ljuset	-8033
▁baka	-8034
▁fry	-8035
▁yt	-8036
▁lax	-8037
che	-8038
agan	-8039
istiskt	-8040
▁dan	-8041
▁minnen	-8042
▁svarade	-8043
ils	-8044
▁mängden	-8045
städ	-8046
koden	-8047
▁ent	-8048
▁underlätta	-8049
▁gymnasiet	-8050
▁yog	-8051
▁utflykt	-8052
▁baserat	-8053
▁bedö	-8054
hjäl	-8055
▁gram	-8056
▁praktisk	-8057
▁Styr	-8058
ffe	-8059
mäktige	-8060
▁planerat	-8061
.[	-8062
▁inbland	-8063
▁utvecklat	-8064
▁morse	-8065
▁garderob	-8066
rikes	-8067
▁smuts	-8068
▁fötter	-8069
▁scenen	-8070
öje	-8071
hjälp	-8072
▁övningar	-8073
▁gifta	-8074
fält	-8075
▁förhållanden	-8076
▁radio	-8077
bg	-8078
bilj	-8079
▁Tänkte	-8080
▁legat	-8081
▁verka	-8082
ättar	-8083
▁XX	-8084
▁ändamål	-8085
▁tids	-8086
soft	-8087
▁gjorts	-8088
▁innebära	-8089
▁varianter	-8090
gnos	-8091
▁starten	-8092
▁Ön	-8093
▁varumärke	-8094
▁Gotland	-8095
atorer	-8096
▁modellen	-8097
formen	-8098
dd	-8099
▁uppfyller	-8100
lapp	-8101
stjänst	-8102
▁uppst	-8103
▁följde	-8104
▁arrangemang	-8105
ubben	-8106
▁Tube	-8107
▁Träff	-8108
förening	-8109
▁händerna	-8110
▁kvinnliga	-8111
▁potential	-8112
anmärk	-8113
släget	-8114
sem	-8115
▁riktning	-8116
etiska	-8117
mun	-8118
strå	-8119
▁läns	-8120
aut	-8121
▁Radio	-8122
ådor	-8123
▁svamp	-8124
▁Robert	-8125
insats	-8126
sted	-8127
▁patient	-8128
▁Vikt	-8129
▁träffat	-8130
▁ange	-8131
▁bostadsrätt	-8132
▁ledde	-8133
duktion	-8134
▁Mär	-8135
PP	-8136
▁Registr	-8137
▁Behöver	-8138
ague	-8139
▁Ram	-8140
▁Puss	-8141
asen	-8142
▁Dagen	-8143
▁Möte	-8144
ianstad	-8145
▁Fem	-8146
▁gillade	-8147
▁Namn	-8148
▁studera	-8149
känsla	-8150
▁fasta	-8151
▁ordna	-8152
▁årsm	-8153
rac	-8154
▁recension	-8155
▁193	-8156
trafik	-8157
▁au	-8158
▁fril	-8159
▁upphov	-8160
kna	-8161
▁njuter	-8162
▁effekter	-8163
▁utforska	-8164
▁Wi	-8165
▁intressen	-8166
▁stödja	-8167
▁förväntningar	-8168
▁cre	-8169
ästan	-8170
zon	-8171
aska	-8172
▁maxim	-8173
US	-8174
▁hyresg	-8175
▁grepp	-8176
▁väck	-8177
▁Flyg	-8178
slo	-8179
former	-8180
smak	-8181
▁2:	-8182
▁separat	-8183
▁Ark	-8184
▁landsb	-8185
riken	-8186
▁skillnaden	-8187
▁höja	-8188
▁deltog	-8189
koll	-8190
▁Twitter	-8191
▁danska	-8192
▁Jord	-8193
▁akut	-8194
▁nude	-8195
▁Coll	-8196
▁materialet	-8197
▁dyra	-8198
▁Gustaf	-8199
ödet	-8200
▁kombinera	-8201
▁deltagarna	-8202
änkta	-8203
▁Medel	-8204
▁medför	-8205
▁Hammar	-8206
▁hin	-8207
▁beskriva	-8208
▁applic	-8209
ismen	-8210
▁smärta	-8211
sökt	-8212
▁spets	-8213
▁Sak	-8214
handlingar	-8215
▁Rock	-8216
▁jämförelse	-8217
▁telefonnummer	-8218
▁transporter	-8219
skill	-8220
▁add	-8221
▁sorters	-8222
▁kryss	-8223
▁Lilla	-8224
▁pappers	-8225
▁undervis	-8226
▁stek	-8227
▁väs	-8228
▁belö	-8229
dens	-8230
▁räkningar	-8231
dsm	-8232
▁Restaur	-8233
nads	-8234
▁cell	-8235
▁ställde	-8236
atör	-8237
▁begränsad	-8238
▁anhör	-8239
▁nomin	-8240
▁BB	-8241
▁atmosfär	-8242
järnan	-8243
Den	-8244
skal	-8245
▁spänning	-8246
▁Li	-8247
▁brudar	-8248
▁sannolik	-8249
kets	-8250
iatiska	-8251
▁omgående	-8252
▁Camp	-8253
▁julklapp	-8254
ningsför	-8255
center	-8256
▁antar	-8257
▁aktier	-8258
▁organisationen	-8259
▁bevilj	-8260
▁kommers	-8261
ify	-8262
▁fitt	-8263
▁bandet	-8264
rap	-8265
polit	-8266
▁Malin	-8267
▁gammalt	-8268
läkare	-8269
▁märke	-8270
▁pers	-8271
een	-8272
limat	-8273
▁näring	-8274
ansvarig	-8275
iabet	-8276
▁has	-8277
▁privatpersoner	-8278
▁Australi	-8279
▁ledarskap	-8280
▁publiceras	-8281
▁Skapa	-8282
▁förbereda	-8283
▁tolk	-8284
▁sallad	-8285
gav	-8286
▁Ir	-8287
▁larm	-8288
ibil	-8289
sskydd	-8290
▁misstag	-8291
▁temat	-8292
hål	-8293
▁Olof	-8294
EM	-8295
risten	-8296
▁affärs	-8297
▁flyttat	-8298
▁stänga	-8299
▁50-	-8300
▁hals	-8301
byggda	-8302
▁tekniker	-8303
▁sko	-8304
llerna	-8305
▁åk	-8306
▁sexy	-8307
kok	-8308
▁hantering	-8309
ifest	-8310
▁skräddars	-8311
rig	-8312
storp	-8313
▁Sätt	-8314
▁livsl	-8315
▁urs	-8316
▁coach	-8317
▁konstn	-8318
oos	-8319
▁spons	-8320
▁ordinarie	-8321
▁Grattis	-8322
▁Musik	-8323
gin	-8324
▁insikt	-8325
▁tävla	-8326
▁våran	-8327
shand	-8328
asc	-8329
skärm	-8330
vatt	-8331
▁umeå	-8332
▁Priv	-8333
▁kne	-8334
▁vanilj	-8335
▁äldsta	-8336
modellen	-8337
▁like	-8338
▁Stort	-8339
▁kä	-8340
▁Charl	-8341
▁våga	-8342
▁snön	-8343
fre	-8344
▁människan	-8345
▁vinnare	-8346
▁Et	-8347
▁smycken	-8348
svensk	-8349
▁ök	-8350
▁exister	-8351
sklass	-8352
▁växande	-8353
rost	-8354
▁fokuserar	-8355
▁fac	-8356
▁bearbet	-8357
kyl	-8358
▁tåget	-8359
▁tillåter	-8360
▁rekommend	-8361
serie	-8362
▁ked	-8363
bunden	-8364
▁gransk	-8365
övde	-8366
▁Tips	-8367
även	-8368
aked	-8369
anny	-8370
sjön	-8371
▁beskrivning	-8372
landa	-8373
uggar	-8374
▁Far	-8375
▁kostnads	-8376
usch	-8377
äsa	-8378
▁jönköping	-8379
obs	-8380
▁kalas	-8381
▁sköter	-8382
ländska	-8383
▁vänd	-8384
▁högkvalit	-8385
▁förvaring	-8386
▁ifråg	-8387
mässigt	-8388
▁konsol	-8389
industrin	-8390
log	-8391
▁vikten	-8392
▁fredagen	-8393
ute	-8394
▁partners	-8395
▁Sig	-8396
▁villa	-8397
▁öppnade	-8398
bla	-8399
▁insåg	-8400
▁märker	-8401
▁behör	-8402
ntligen	-8403
▁klickar	-8404
▁togs	-8405
23	-8406
▁Lisa	-8407
▁förest	-8408
cell	-8409
rastruktur	-8410
▁Fisk	-8411
▁tekniken	-8412
▁behag	-8413
8,	-8414
das	-8415
▁turist	-8416
▁humör	-8417
65	-8418
▁kunderna	-8419
roll	-8420
▁förf	-8421
sarbete	-8422
▁samverkan	-8423
ttit	-8424
bout	-8425
längd	-8426
▁besökte	-8427
▁vistelse	-8428
mö	-8429
▁Målet	-8430
▁station	-8431
▁svaret	-8432
rimin	-8433
▁friv	-8434
▁Göran	-8435
▁lämnas	-8436
▁Lill	-8437
▁betong	-8438
▁företr	-8439
▁kategorier	-8440
umman	-8441
▁vandring	-8442
▁fylld	-8443
▁plagg	-8444
▁ugn	-8445
▁Gran	-8446
▁presenterade	-8447
öden	-8448
iks	-8449
oren	-8450
butiker	-8451
▁staten	-8452
▁2006	-8453
▁Boka	-8454
centrum	-8455
▁berättelse	-8456
änniskor	-8457
▁textil	-8458
frik	-8459
▁Besök	-8460
▁kanal	-8461
tav	-8462
lerna	-8463
format	-8464
▁Säker	-8465
▁brut	-8466
bandet	-8467
▁Medan	-8468
▁övre	-8469
▁plugga	-8470
föreningen	-8471
stitu	-8472
▁tera	-8473
▁trett	-8474
▁grundades	-8475
▁fattar	-8476
▁Mest	-8477
▁ting	-8478
weiz	-8479
▁miljöv	-8480
▁Fran	-8481
▁åkt	-8482
ters	-8483
▁hamna	-8484
spec	-8485
görande	-8486
▁samm	-8487
flyg	-8488
▁hehe	-8489
▁Johanna	-8490
▁smink	-8491
▁skatte	-8492
▁jättef	-8493
▁Di	-8494
inister	-8495
ledes	-8496
▁tå	-8497
▁tvärt	-8498
-19	-8499
▁Håkan	-8500
ävlingen	-8501
▁förskolan	-8502
ygden	-8503
▁Olsson	-8504
▁pojkv	-8505
▁häll	-8506
▁skapas	-8507
skop	-8508
vete	-8509
▁attra	-8510
arbeten	-8511
▁tabl	-8512
sledare	-8513
▁ros	-8514
▁veckorna	-8515
mät	-8516
umenter	-8517
▁kredituppl	-8518
öten	-8519
▁tänder	-8520
▁Ord	-8521
▁figur	-8522
▁trakt	-8523
ioder	-8524
▁mak	-8525
lemmar	-8526
täck	-8527
istens	-8528
kland	-8529
▁professionella	-8530
▁Ikväll	-8531
▁enorma	-8532
orts	-8533
▁negativa	-8534
enomen	-8535
▁tillbring	-8536
▁midsommar	-8537
▁Södra	-8538
▁serveras	-8539
etch	-8540
ändsk	-8541
▁motsvarar	-8542
FF	-8543
▁avsluta	-8544
▁hållet	-8545
▁sel	-8546
▁invand	-8547
▁Institut	-8548
▁lycklig	-8549
▁färsk	-8550
▁Michael	-8551
tv	-8552
▁0.	-8553
▁Full	-8554
▁suttit	-8555
rater	-8556
▁missat	-8557
ienska	-8558
▁aukt	-8559
▁fysisk	-8560
skvällen	-8561
följande	-8562
hult	-8563
▁undervisning	-8564
▁röster	-8565
▁mobiltelefon	-8566
▁rak	-8567
urar	-8568
▁julen	-8569
▁variant	-8570
ningom	-8571
▁aff	-8572
▁SMS	-8573
cks	-8574
▁sevärd	-8575
▁til	-8576
▁tapet	-8577
amot	-8578
▁uppl	-8579
ads	-8580
ifik	-8581
ockan	-8582
▁bens	-8583
▁gränsen	-8584
▁president	-8585
IM	-8586
▁Ken	-8587
IV	-8588
▁Osc	-8589
itz	-8590
byrå	-8591
▁råder	-8592
▁byter	-8593
▁Hund	-8594
▁37	-8595
▁stam	-8596
inse	-8597
▁utgångspunkt	-8598
▁Kategor	-8599
▁Lätt	-8600
▁norska	-8601
arab	-8602
▁påverkas	-8603
▁smaker	-8604
▁4,	-8605
▁Oj	-8606
▁rätten	-8607
hälsa	-8608
▁slot	-8609
▁Köpenhamn	-8610
fakt	-8611
iftet	-8612
▁Va	-8613
hotell	-8614
▁rabattkod	-8615
▁access	-8616
▁katter	-8617
yggande	-8618
erska	-8619
hallen	-8620
▁Endast	-8621
▁mötesplatsen	-8622
▁väntat	-8623
▁klassen	-8624
lines	-8625
edem	-8626
▁Pay	-8627
▁baserad	-8628
oar	-8629
edia	-8630
▁Artik	-8631
▁foder	-8632
▁2005	-8633
▁rengöring	-8634
▁time	-8635
▁ekologiska	-8636
▁Kär	-8637
▁signal	-8638
▁malm	-8639
▁webbläsare	-8640
▁berättelser	-8641
ico	-8642
▁fota	-8643
familj	-8644
▁Petter	-8645
▁rest	-8646
▁800	-8647
▁påminner	-8648
innan	-8649
▁nivåer	-8650
ivision	-8651
▁lockar	-8652
▁Word	-8653
▁innefatt	-8654
SD	-8655
avtal	-8656
▁Cla	-8657
produc	-8658
▁uppför	-8659
ymp	-8660
▁Volvo	-8661
▁möts	-8662
▁dyrt	-8663
▁mand	-8664
▁fånga	-8665
▁Thailand	-8666
▁sakta	-8667
▁valp	-8668
▁smäl	-8669
▁gränser	-8670
!.	-8671
konst	-8672
▁synner	-8673
ND	-8674
sfärg	-8675
▁Express	-8676
▁produkterna	-8677
▁föreningar	-8678
iserad	-8679
▁farligt	-8680
▁Bred	-8681
▁steget	-8682
▁invig	-8683
▁orter	-8684
▁top	-8685
▁Green	-8686
▁tempo	-8687
▁samarbetar	-8688
▁Back	-8689
▁karta	-8690
▁Äntligen	-8691
anskt	-8692
▁2016.	-8693
▁obligator	-8694
▁inrednings	-8695
▁tacksam	-8696
▁Familj	-8697
▁verkade	-8698
talienska	-8699
oy	-8700
▁fiske	-8701
▁elegant	-8702
rem	-8703
ocket	-8704
▁LO	-8705
▁gatan	-8706
▁grädde	-8707
▁inneha	-8708
▁moment	-8709
▁äkt	-8710
▁distans	-8711
▁hämtade	-8712
video	-8713
▁komplic	-8714
▁Cont	-8715
▁stannade	-8716
pul	-8717
▁vr	-8718
▁Herr	-8719
▁läpp	-8720
▁kasinon	-8721
▁agera	-8722
▁veckans	-8723
▁dras	-8724
▁ovanför	-8725
▁status	-8726
▁behovet	-8727
▁närhet	-8728
veckan	-8729
▁orolig	-8730
bak	-8731
▁lyfter	-8732
▁investering	-8733
tom	-8734
▁anled	-8735
arv	-8736
olver	-8737
▁Tanken	-8738
▁strid	-8739
▁förlust	-8740
bba	-8741
▁budskap	-8742
▁innovation	-8743
▁tilldel	-8744
▁ledsen	-8745
egel	-8746
äsongen	-8747
▁breda	-8748
▁halsen	-8749
▁ställs	-8750
▁Univers	-8751
▁avgöra	-8752
ulette	-8753
▁Cat	-8754
ooth	-8755
stand	-8756
▁Fastighet	-8757
▁Götal	-8758
▁utredning	-8759
▁rida	-8760
▁Cit	-8761
▁Grön	-8762
▁Linn	-8763
stör	-8764
▁Histor	-8765
▁Trev	-8766
värld	-8767
▁Väldigt	-8768
▁sökt	-8769
▁förtjän	-8770
sters	-8771
▁experter	-8772
▁stig	-8773
▁(4	-8774
sförs	-8775
▁Finans	-8776
▁riktar	-8777
▁småningom	-8778
useum	-8779
▁rollen	-8780
▁Sön	-8781
▁Holm	-8782
▁tröja	-8783
▁vinden	-8784
jta	-8785
▁mångf	-8786
▁pojkar	-8787
▁hästen	-8788
▁Problem	-8789
▁bekymmer	-8790
cht	-8791
▁Wil	-8792
räd	-8793
▁Norden	-8794
▁pum	-8795
▁guid	-8796
▁slots	-8797
▁löst	-8798
▁hjälpte	-8799
▁färdigt	-8800
▁märken	-8801
▁skade	-8802
▁Sär	-8803
▁League	-8804
ansch	-8805
yle	-8806
▁investera	-8807
▁snälla	-8808
bile	-8809
▁videospel	-8810
jon	-8811
▁index	-8812
▁Jim	-8813
▁Dela	-8814
▁Sitter	-8815
musik	-8816
▁Riktigt	-8817
▁fara	-8818
▁mjukt	-8819
utrustning	-8820
änsle	-8821
▁sekund	-8822
uft	-8823
kakor	-8824
▁hemliga	-8825
skrift	-8826
▁resen	-8827
änsl	-8828
▁kategori	-8829
▁Jenny	-8830
baserade	-8831
▁presentation	-8832
▁inlogg	-8833
stin	-8834
▁frivill	-8835
▁Elin	-8836
shamn	-8837
papper	-8838
▁pröv	-8839
ågor	-8840
▁skål	-8841
▁utvecklats	-8842
▁Ban	-8843
▁Lou	-8844
▁hjärnan	-8845
sman	-8846
▁Spela	-8847
sprocessen	-8848
agor	-8849
▁bryr	-8850
▁likt	-8851
▁pann	-8852
▁matemat	-8853
▁begrav	-8854
▁Intress	-8855
iets	-8856
▁Flick	-8857
▁rader	-8858
▁nordiska	-8859
▁obeh	-8860
skåd	-8861
▁hastighet	-8862
▁gat	-8863
▁skinn	-8864
astrof	-8865
▁protein	-8866
städer	-8867
▁sock	-8868
▁språket	-8869
olution	-8870
▁tidig	-8871
▁konsert	-8872
▁älska	-8873
iro	-8874
▁yoga	-8875
▁galet	-8876
räff	-8877
▁globala	-8878
27	-8879
▁This	-8880
▁Ljung	-8881
▁behandlingar	-8882
▁fjäll	-8883
ading	-8884
▁vården	-8885
spår	-8886
▁Öst	-8887
Ad	-8888
▁Skol	-8889
:30	-8890
▁workshop	-8891
▁passform	-8892
▁spelarna	-8893
slam	-8894
▁förhindra	-8895
▁Ton	-8896
▁OBS	-8897
ställt	-8898
höj	-8899
given	-8900
▁kämpar	-8901
▁Tri	-8902
▁Norm	-8903
▁gymmet	-8904
ytan	-8905
.00.	-8906
innes	-8907
emplar	-8908
▁faktura	-8909
▁krång	-8910
▁lagstift	-8911
▁vett	-8912
▁kapacitet	-8913
▁firar	-8914
satsen	-8915
▁ekologisk	-8916
▁Isa	-8917
stam	-8918
iserat	-8919
▁fulla	-8920
▁företags	-8921
▁bre	-8922
▁skre	-8923
registr	-8924
▁stått	-8925
▁fartyg	-8926
läge	-8927
unala	-8928
▁frist	-8929
▁element	-8930
▁kommunik	-8931
▁väv	-8932
åringen	-8933
▁investeringar	-8934
▁opp	-8935
▁casinon	-8936
▁Match	-8937
▁kristna	-8938
▁pal	-8939
▁ü	-8940
▁190	-8941
▁Joh	-8942
▁försäk	-8943
rätter	-8944
come	-8945
▁Chat	-8946
▁bollen	-8947
▁varierande	-8948
▁Club	-8949
▁Generisk	-8950
▁smitt	-8951
▁finska	-8952
best	-8953
▁Sun	-8954
▁torka	-8955
▁telefonen	-8956
▁lokalt	-8957
▁dyka	-8958
ynda	-8959
▁troll	-8960
▁människors	-8961
▁prestanda	-8962
▁tätt	-8963
▁mötte	-8964
▁39	-8965
▁infekt	-8966
▁praktiken	-8967
▁Bas	-8968
▁sites	-8969
▁tidiga	-8970
▁vitlök	-8971
▁fjärr	-8972
▁förlorade	-8973
onerande	-8974
bundna	-8975
▁företagare	-8976
▁Prem	-8977
▁försen	-8978
▁vegetar	-8979
sättningarna	-8980
▁Cap	-8981
▁Erotiska	-8982
▁Mov	-8983
▁Fo	-8984
▁tryggt	-8985
▁genomsnittet	-8986
▁Fantast	-8987
▁städa	-8988
▁uppenbar	-8989
▁betydande	-8990
vert	-8991
ply	-8992
gripande	-8993
tok	-8994
uru	-8995
▁sammans	-8996
▁Bru	-8997
▁bestående	-8998
▁bredd	-8999
▁kod	-9000
kons	-9001
-8	-9002
▁försvann	-9003
▁arbetsmiljö	-9004
station	-9005
▁installera	-9006
▁samlade	-9007
▁salu	-9008
▁tjejerna	-9009
▁anpassade	-9010
▁Handel	-9011
strateg	-9012
ottern	-9013
▁Samtliga	-9014
▁klassiker	-9015
mad	-9016
▁beläget	-9017
HA	-9018
▁annon	-9019
▁hanterar	-9020
atte	-9021
vägg	-9022
/201	-9023
▁í	-9024
▁Polisen	-9025
▁svär	-9026
litt	-9027
karna	-9028
▁belysning	-9029
▁website	-9030
▁installation	-9031
tex	-9032
▁lider	-9033
▁ó	-9034
▁skam	-9035
-7	-9036
▁bada	-9037
▁lanet	-9038
▁neder	-9039
33	-9040
▁rank	-9041
ordningen	-9042
▁kontinuerligt	-9043
process	-9044
▁Wel	-9045
▁bonusar	-9046
/10	-9047
▁Server	-9048
sbo	-9049
sket	-9050
▁Sofia	-9051
▁inbju	-9052
▁skådespel	-9053
klubben	-9054
▁gull	-9055
ago	-9056
▁utgifter	-9057
▁telefoner	-9058
kaka	-9059
▁SL	-9060
iviteter	-9061
▁Dina	-9062
▁överenskomm	-9063
bott	-9064
position	-9065
▁förbju	-9066
aktioner	-9067
ebr	-9068
▁Föreningen	-9069
kräm	-9070
eterare	-9071
▁Inför	-9072
▁Klass	-9073
▁Kons	-9074
▁Färgen	-9075
▁Häl	-9076
▁von	-9077
▁Fest	-9078
▁Erotik	-9079
givande	-9080
▁bla	-9081
▁hed	-9082
sal	-9083
▁lade	-9084
▁offer	-9085
▁Helsing	-9086
▁Ulf	-9087
nast	-9088
▁utspel	-9089
draget	-9090
komna	-9091
▁tillverkade	-9092
▁mord	-9093
▁sjuka	-9094
▁Ron	-9095
▁Tar	-9096
▁Vall	-9097
▁miljövän	-9098
▁Jac	-9099
▁bist	-9100
▁PS	-9101
eteck	-9102
▁delakt	-9103
lease	-9104
▁Sem	-9105
▁kommenter	-9106
oman	-9107
irur	-9108
26	-9109
▁stolta	-9110
▁Börj	-9111
▁fängelse	-9112
▁Gra	-9113
otte	-9114
agare	-9115
▁moms	-9116
▁tabell	-9117
systemet	-9118
▁Fotboll	-9119
▁kreativa	-9120
▁fiber	-9121
▁loppet	-9122
verkets	-9123
▁uppfattning	-9124
▁placering	-9125
▁Kim	-9126
▁serier	-9127
▁run	-9128
▁författaren	-9129
▁mejl	-9130
▁Power	-9131
200	-9132
▁behandlingen	-9133
▁love	-9134
▁täcker	-9135
▁fötterna	-9136
▁30-	-9137
▁störst	-9138
▁videok	-9139
▁kunn	-9140
▁utsträck	-9141
▁avancerade	-9142
▁tvätta	-9143
▁Sus	-9144
▁anställning	-9145
▁generellt	-9146
ekonom	-9147
▁Träd	-9148
▁INTE	-9149
▁sad	-9150
äsong	-9151
▁stjärnor	-9152
▁Milf	-9153
▁Jess	-9154
▁99	-9155
ORT	-9156
▁Typ	-9157
ummi	-9158
▁kvant	-9159
▁uppvärm	-9160
▁mobila	-9161
▁närmar	-9162
▁Group	-9163
▁SEX	-9164
orth	-9165
▁betalt	-9166
oom	-9167
▁sår	-9168
profil	-9169
▁ALL	-9170
▁identitet	-9171
splatser	-9172
▁jeans	-9173
▁dru	-9174
▁Goteborg	-9175
-18	-9176
work	-9177
fallet	-9178
made	-9179
ni	-9180
annes	-9181
zy	-9182
▁förlora	-9183
▁vild	-9184
▁lita	-9185
▁bokning	-9186
▁korr	-9187
▁förskola	-9188
▁betting	-9189
▁nätter	-9190
▁mörkt	-9191
imeter	-9192
rustad	-9193
asse	-9194
▁Dalarna	-9195
▁partier	-9196
▁Kåt	-9197
▁vacc	-9198
▁civil	-9199
▁kanon	-9200
▁Cup	-9201
rukost	-9202
▁Samman	-9203
sband	-9204
▁satsning	-9205
▁kondom	-9206
▁kosta	-9207
▁Nä	-9208
▁skylt	-9209
▁dok	-9210
skilt	-9211
▁succé	-9212
▁email	-9213
▁rutin	-9214
▁muskel	-9215
▁löser	-9216
ekom	-9217
▁Observera	-9218
▁årliga	-9219
▁Frida	-9220
▁ytor	-9221
sned	-9222
▁sträcker	-9223
mn	-9224
▁katalog	-9225
▁Champ	-9226
▁stift	-9227
▁arbetsgiv	-9228
dec	-9229
▁rot	-9230
▁anges	-9231
▁journalist	-9232
fattare	-9233
▁tillgänglighet	-9234
▁tunnel	-9235
▁innehålla	-9236
▁linköping	-9237
▁teknisk	-9238
▁Gen	-9239
▁batteri	-9240
▁fungerande	-9241
▁tillverkare	-9242
elaterade	-9243
▁rullar	-9244
▁comments	-9245
▁slutligen	-9246
sväg	-9247
▁Kor	-9248
▁kraven	-9249
▁promen	-9250
▁car	-9251
atik	-9252
bru	-9253
▁lesbisk	-9254
iler	-9255
▁fastigheten	-9256
▁placera	-9257
▁yrke	-9258
▁Borg	-9259
▁Tillsätt	-9260
▁diagnos	-9261
▁mage	-9262
▁allmänheten	-9263
▁tillverkning	-9264
▁Bi	-9265
▁kud	-9266
▁6.	-9267
▁Ladda	-9268
▁kastr	-9269
ated	-9270
platta	-9271
▁Glob	-9272
▁personlighet	-9273
▁andras	-9274
▁fat	-9275
öken	-9276
▁tipsa	-9277
▁was	-9278
▁versionen	-9279
▁Anton	-9280
▁möjliggör	-9281
▁abonn	-9282
▁medlemskap	-9283
▁hyre	-9284
ningsm	-9285
▁återförsäljare	-9286
▁Org	-9287
koder	-9288
jour	-9289
juka	-9290
▁professor	-9291
vakning	-9292
faren	-9293
▁tvekan	-9294
▁09	-9295
▁20-	-9296
stick	-9297
▁hållbart	-9298
▁(201	-9299
▁Mattias	-9300
▁USB	-9301
▁tidning	-9302
▁överl	-9303
▁rösta	-9304
▁Reger	-9305
sma	-9306
unge	-9307
▁adressen	-9308
▁affären	-9309
▁debut	-9310
▁angel	-9311
▁akadem	-9312
▁skett	-9313
vas	-9314
▁upptäckte	-9315
▁Vir	-9316
▁frågorna	-9317
▁beskrivs	-9318
▁kommunala	-9319
▁väger	-9320
gärder	-9321
idering	-9322
▁ändringar	-9323
ikali	-9324
▁mäster	-9325
atter	-9326
▁2-	-9327
▁lök	-9328
js	-9329
▁ork	-9330
▁Eskilstuna	-9331
▁släng	-9332
▁Android	-9333
▁Lycka	-9334
▁värm	-9335
29	-9336
ah	-9337
ingo	-9338
▁Grund	-9339
▁datab	-9340
▁homosex	-9341
▁skjuta	-9342
byxor	-9343
▁Svensson	-9344
▁Data	-9345
▁temperaturen	-9346
▁impl	-9347
28	-9348
▁skickade	-9349
▁Ell	-9350
▁lab	-9351
▁Guld	-9352
▁skrivbord	-9353
sförmed	-9354
bäck	-9355
▁ljuv	-9356
▁baby	-9357
▁trav	-9358
▁tysk	-9359
änkande	-9360
▁främja	-9361
Sk	-9362
▁matlag	-9363
▁sambo	-9364
▁Strand	-9365
▁Jön	-9366
▁collect	-9367
ison	-9368
▁It	-9369
vägar	-9370
▁hette	-9371
▁Mig	-9372
▁yttre	-9373
öva	-9374
▁report	-9375
▁västerås	-9376
▁lösningen	-9377
▁förläng	-9378
▁bädd	-9379
▁register	-9380
▁programvara	-9381
▁lyser	-9382
▁femin	-9383
SC	-9384
▁44	-9385
▁socialt	-9386
▁70-	-9387
▁kasino	-9388
▁Alexander	-9389
▁Norra	-9390
▁mäta	-9391
ontor	-9392
teringen	-9393
anpass	-9394
▁restaurangen	-9395
▁regionen	-9396
▁dricker	-9397
▁grafik	-9398
▁utgå	-9399
▁body	-9400
▁barnens	-9401
▁klo	-9402
ugor	-9403
▁tjänar	-9404
▁pump	-9405
▁Dat	-9406
▁Sec	-9407
▁besviken	-9408
▁Pan	-9409
annat	-9410
▁tillverkas	-9411
höll	-9412
▁klick	-9413
▁västra	-9414
▁kvadratmeter	-9415
▁Sista	-9416
hållare	-9417
träning	-9418
▁delarna	-9419
▁bind	-9420
▁väggar	-9421
.,	-9422
skottet	-9423
▁himmel	-9424
▁anonym	-9425
▁aktuellt	-9426
hållning	-9427
▁Microsoft	-9428
▁kostnadsfritt	-9429
ved	-9430
UR	-9431
▁klippa	-9432
enader	-9433
▁släpps	-9434
▁Simon	-9435
pert	-9436
▁tungt	-9437
▁Nytt	-9438
▁tillgod	-9439
▁flygplatsen	-9440
▁viktigare	-9441
▁Hag	-9442
▁Rel	-9443
▁play	-9444
board	-9445
▁Vik	-9446
▁påmin	-9447
▁postades	-9448
hyrning	-9449
▁Happy	-9450
▁War	-9451
▁artister	-9452
▁rea	-9453
eslut	-9454
▁baksidan	-9455
▁Nordic	-9456
emon	-9457
▁glid	-9458
▁storleken	-9459
ilda	-9460
▁identifiera	-9461
__	-9462
▁smal	-9463
▁GR	-9464
▁:(	-9465
▁Kåta	-9466
▁Nation	-9467
ödd	-9468
▁godkänd	-9469
▁strävar	-9470
lash	-9471
ifi	-9472
itor	-9473
MA	-9474
laren	-9475
jänst	-9476
▁konkurren	-9477
▁resurs	-9478
▁kampanjer	-9479
▁smaken	-9480
▁Son	-9481
test	-9482
▁gilla	-9483
▁ursäkt	-9484
▁arv	-9485
▁intensiv	-9486
▁femte	-9487
▁180	-9488
ki	-9489
enderar	-9490
ffel	-9491
ellefteå	-9492
ståndet	-9493
asm	-9494
▁Cor	-9495
stolen	-9496
▁arbetsuppgifter	-9497
▁Berlin	-9498
less	-9499
▁näs	-9500
▁bastu	-9501
):	-9502
ygien	-9503
▁vana	-9504
innar	-9505
▁menyn	-9506
pg	-9507
▁årskurs	-9508
sby	-9509
▁rika	-9510
▁filosof	-9511
udar	-9512
▁tårt	-9513
▁Mr	-9514
▁böckerna	-9515
boende	-9516
▁jämställd	-9517
ämma	-9518
iabetes	-9519
▁fyllde	-9520
▁noggrann	-9521
sätts	-9522
▁spanska	-9523
ext	-9524
▁centralt	-9525
oping	-9526
▁Mannen	-9527
ymbol	-9528
morgon	-9529
ely	-9530
▁nybörjare	-9531
▁dubbla	-9532
fram	-9533
▁flyga	-9534
▁Håller	-9535
▁Mid	-9536
savgift	-9537
biliter	-9538
▁Damer	-9539
▁långsamt	-9540
▁tvär	-9541
▁acceptera	-9542
5,	-9543
▁bebis	-9544
▁Gunnar	-9545
ducent	-9546
röst	-9547
▁tidningar	-9548
▁anställd	-9549
▁hundratals	-9550
▁fönstret	-9551
▁väntade	-9552
▁reha	-9553
▁harmon	-9554
▁byggdes	-9555
▁etablering	-9556
▁förbättring	-9557
▁pin	-9558
▁Veck	-9559
ölja	-9560
▁klä	-9561
glad	-9562
▁formul	-9563
ege	-9564
stern	-9565
möte	-9566
lagen	-9567
▁således	-9568
cast	-9569
halt	-9570
▁Rich	-9571
▁helger	-9572
▁amerikansk	-9573
panel	-9574
▁Åsa	-9575
▁torra	-9576
▁fond	-9577
▁äktenskap	-9578
åpet	-9579
▁töm	-9580
▁toalett	-9581
▁månaderna	-9582
iser	-9583
▁Home	-9584
▁stunder	-9585
▁hi	-9586
▁hörs	-9587
▁ökning	-9588
▁uppdraget	-9589
▁växte	-9590
zer	-9591
▁gräv	-9592
▁specifik	-9593
dring	-9594
▁ändras	-9595
▁arbetade	-9596
usse	-9597
▁lid	-9598
▁informera	-9599
▁Östersund	-9600
inerande	-9601
▁intresset	-9602
▁kasta	-9603
▁Tjej	-9604
▁kvm	-9605
▁misslycka	-9606
▁pågående	-9607
▁avser	-9608
läggningar	-9609
▁räntor	-9610
▁entré	-9611
▁pati	-9612
▁uppdaterad	-9613
▁William	-9614
▁knep	-9615
▁Love	-9616
▁fatta	-9617
ligaste	-9618
▁leksak	-9619
▁perman	-9620
▁skräck	-9621
▁grus	-9622
▁stilla	-9623
▁gula	-9624
▁receptfritt	-9625
▁Island	-9626
bert	-9627
▁Anledningen	-9628
▁gästerna	-9629
▁fysiskt	-9630
▁Enkel	-9631
urn	-9632
konomi	-9633
▁Alltid	-9634
▁Carol	-9635
▁användarna	-9636
▁misstänkt	-9637
▁lärarna	-9638
▁spont	-9639
▁återkommer	-9640
agne	-9641
▁Vuxen	-9642
▁ged	-9643
skom	-9644
havare	-9645
▁farmor	-9646
▁front	-9647
▁lys	-9648
▁kommunicera	-9649
▁uppdatering	-9650
ägenhet	-9651
▁Pal	-9652
▁Spot	-9653
▁vision	-9654
▁pens	-9655
▁pig	-9656
▁veterin	-9657
▁Unga	-9658
▁brinner	-9659
▁kortet	-9660
edemokrat	-9661
ights	-9662
cia	-9663
▁smidig	-9664
▁dress	-9665
▁partiet	-9666
eriod	-9667
Du	-9668
▁Kap	-9669
ystemet	-9670
elly	-9671
etterna	-9672
78	-9673
▁balkong	-9674
sfall	-9675
▁släppte	-9676
▁ledningen	-9677
entuna	-9678
▁borgen	-9679
▁Universitet	-9680
▁minnes	-9681
▁--	-9682
sser	-9683
▁Blå	-9684
▁väska	-9685
▁Lik	-9686
▁titeln	-9687
▁ICA	-9688
▁3:	-9689
staka	-9690
▁förutsättning	-9691
ware	-9692
anmälan	-9693
▁cyklar	-9694
förvalt	-9695
skick	-9696
able	-9697
afé	-9698
▁Wa	-9699
▁swedish	-9700
oci	-9701
anne	-9702
▁Vård	-9703
▁muskler	-9704
▁skift	-9705
▁titel	-9706
▁ombord	-9707
▁önskan	-9708
▁härom	-9709
▁involver	-9710
▁konkurrens	-9711
▁mysiga	-9712
▁Ställ	-9713
▁oänd	-9714
ytor	-9715
▁years	-9716
usia	-9717
▁Telefon	-9718
utor	-9719
handeln	-9720
▁Nästan	-9721
▁1800-	-9722
▁bokar	-9723
beth	-9724
hydr	-9725
amt	-9726
ski	-9727
uppgift	-9728
▁återstår	-9729
▁utsträckning	-9730
▁skickat	-9731
▁belast	-9732
▁ending	-9733
onto	-9734
▁erkänna	-9735
▁1-	-9736
mjöl	-9737
▁erfarna	-9738
▁Brand	-9739
▁Smart	-9740
▁Disk	-9741
▁minnas	-9742
▁betalningar	-9743
just	-9744
ulära	-9745
▁ersätta	-9746
Ar	-9747
▁överlev	-9748
▁föreslår	-9749
▁^	-9750
backen	-9751
▁slänga	-9752
kontroll	-9753
▁Afton	-9754
gad	-9755
idens	-9756
ball	-9757
▁medans	-9758
▁musikal	-9759
▁Pla	-9760
▁rutiner	-9761
▁talet	-9762
▁kompa	-9763
▁46	-9764
▁ljusa	-9765
▁Jak	-9766
kter	-9767
▁halla	-9768
▁kontoret	-9769
▁tillgängligt	-9770
▁banken	-9771
dt	-9772
▁2015.	-9773
▁hållbara	-9774
▁Israel	-9775
▁provat	-9776
stider	-9777
▁ang	-9778
▁orden	-9779
▁producerar	-9780
ktionen	-9781
▁Nic	-9782
▁dagis	-9783
▁demonstr	-9784
▁proffs	-9785
▁myst	-9786
▁avslutar	-9787
handlare	-9788
▁gär	-9789
▁exemplar	-9790
▁räddning	-9791
▁imponerande	-9792
odral	-9793
ugen	-9794
▁noggrant	-9795
stjänsten	-9796
utar	-9797
▁(5	-9798
▁chanser	-9799
▁personligen	-9800
igger	-9801
▁beslutat	-9802
▁ler	-9803
angel	-9804
pade	-9805
▁lot	-9806
affär	-9807
▁reflekt	-9808
▁content	-9809
UM	-9810
▁alternativet	-9811
▁Naken	-9812
▁bedriva	-9813
▁fastighets	-9814
▁synas	-9815
▁ford	-9816
▁legitim	-9817
speriod	-9818
▁flickvän	-9819
▁kry	-9820
nitt	-9821
▁funktionsned	-9822
▁pepp	-9823
▁utsatta	-9824
▁vakna	-9825
▁dagars	-9826
▁Häls	-9827
▁korv	-9828
ruta	-9829
▁kokos	-9830
▁vardagsrum	-9831
▁obehag	-9832
▁riktlinjer	-9833
▁pir	-9834
▁nyhetsbrev	-9835
km	-9836
jell	-9837
▁ull	-9838
▁inn	-9839
▁planet	-9840
▁Poker	-9841
▁Barcel	-9842
▁cup	-9843
▁plant	-9844
pers	-9845
▁80-	-9846
▁CD	-9847
ämnden	-9848
▁välkända	-9849
▁riv	-9850
▁ärenden	-9851
▁visserligen	-9852
▁friska	-9853
äter	-9854
▁anger	-9855
bilden	-9856
anner	-9857
▁Filmen	-9858
▁allvarligt	-9859
▁värderingar	-9860
ekr	-9861
▁Hum	-9862
▁sköts	-9863
▁körkort	-9864
98	-9865
▁Arbetet	-9866
▁bekväma	-9867
▁kristen	-9868
▁generation	-9869
dda	-9870
▁rapporterar	-9871
▁slump	-9872
▁olj	-9873
▁gitarr	-9874
stugan	-9875
▁utnyttjar	-9876
eng	-9877
vade	-9878
▁Frågan	-9879
smet	-9880
▁Turkiet	-9881
yllen	-9882
verkat	-9883
▁jula	-9884
▁avsnittet	-9885
▁lägsta	-9886
inst	-9887
▁60-	-9888
▁timmars	-9889
▁tantra	-9890
punkten	-9891
▁flygplats	-9892
jun	-9893
barhet	-9894
▁våt	-9895
▁oliv	-9896
▁elva	-9897
utna	-9898
sbok	-9899
AC	-9900
▁skugg	-9901
▁skiva	-9902
mån	-9903
▁sjunger	-9904
46	-9905
skläder	-9906
▁konsekvenser	-9907
▁premium	-9908
▁cykla	-9909
▁spelen	-9910
fym	-9911
▁Marcus	-9912
▁påverkan	-9913
▁Färg	-9914
▁Bang	-9915
▁föregående	-9916
▁champ	-9917
icks	-9918
▁föreläsningar	-9919
heim	-9920
De	-9921
åldern	-9922
RF	-9923
shem	-9924
eborg	-9925
▁feber	-9926
sli	-9927
▁ed	-9928
▁bry	-9929
▁synpunkter	-9930
bildning	-9931
Fi	-9932
▁uppgrader	-9933
▁kämp	-9934
samlingen	-9935
▁kontaktar	-9936
▁sjukhuset	-9937
▁diskret	-9938
▁avlopp	-9939
▁Service	-9940
▁bakgrunden	-9941
fol	-9942
▁verket	-9943
▁roman	-9944
▁ögat	-9945
kommit	-9946
dant	-9947
▁Ki	-9948
bed	-9949
strid	-9950
▁Rapp	-9951
▁Your	-9952
▁förväntas	-9953
▁byxor	-9954
▁liknar	-9955
▁EN	-9956
sas	-9957
såldern	-9958
ivor	-9959
▁Hud	-9960
▁Grand	-9961
▁officiella	-9962
▁processer	-9963
▁Europas	-9964
ст	-9965
▁fjol	-9966
▁robot	-9967
utrymmet	-9968
ublish	-9969
▁gig	-9970
▁sat	-9971
▁skör	-9972
▁vattent	-9973
▁köpet	-9974
▁Test	-9975
▁Ock	-9976
▁che	-9977
▁förkn	-9978
▁ifrågas	-9979
pril	-9980
igheterna	-9981
▁enlighet	-9982
▁Adam	-9983
▁Tomas	-9984
▁självför	-9985
▁tenn	-9986
▁Tv	-9987
▁smyg	-9988
▁efterhand	-9989
▁;-)	-9990
ategory	-9991
▁biljett	-9992
VD	-9993
▁Utveck	-9994
text	-9995
▁gemenskap	-9996
▁uppsk	-9997
▁pratat	-9998
ebo	-9999
▁skärmen	-10000
lopp	-10001
▁tillgang	-10002
▁passande	-10003
▁Media	-10004
▁östra	-10005
▁inställning	-10006
▁överläg	-10007
▁specialist	-10008
▁startat	-10009
▁Projektet	-10010
tips	-10011
▁krafter	-10012
parken	-10013
▁släppt	-10014
▁lett	-10015
laddning	-10016
▁Barnen	-10017
vända	-10018
▁webcam	-10019
▁öron	-10020
▁medborgare	-10021
▁använts	-10022
▁andel	-10023
tokoll	-10024
ötande	-10025
:0	-10026
▁förresten	-10027
▁samarbetspart	-10028
▁avläg	-10029
svenska	-10030
opro	-10031
dist	-10032
peut	-10033
▁mini	-10034
▁aug	-10035
▁uppdateras	-10036
▁avslutas	-10037
▁barndom	-10038
▁rörelser	-10039
▁biblioteket	-10040
sw	-10041
ioxid	-10042
raden	-10043
sakt	-10044
gjorda	-10045
entliga	-10046
▁kilo	-10047
▁brygg	-10048
yddet	-10049
▁flexib	-10050
▁5,	-10051
▁syssel	-10052
ansök	-10053
▁goteborg	-10054
rigt	-10055
▁minskat	-10056
▁nätt	-10057
▁Somm	-10058
▁lämpligt	-10059
▁tvärtom	-10060
▁skriven	-10061
rock	-10062
▁popularitet	-10063
▁Kuk	-10064
▁inbjud	-10065
▁funderingar	-10066
▁bondage	-10067
▁Ap	-10068
▁Grekland	-10069
▁Lud	-10070
▁beräknas	-10071
▁Read	-10072
▁auto	-10073
▁pall	-10074
▁samarbeta	-10075
▁garage	-10076
▁jättem	-10077
▁finansiell	-10078
olda	-10079
▁bered	-10080
▁fenomen	-10081
▁Cir	-10082
▁advok	-10083
▁komponenter	-10084
▁IFK	-10085
▁Maj	-10086
▁Tje	-10087
▁omvand	-10088
▁cli	-10089
▁arter	-10090
▁85	-10091
▁vaknar	-10092
▁stänger	-10093
▁axel	-10094
▁vall	-10095
▁väntan	-10096
▁Sju	-10097
1)	-10098
▁42	-10099
▁AIK	-10100
ordin	-10101
▁dött	-10102
datum	-10103
▁Stör	-10104
smilj	-10105
▁skåne	-10106
anser	-10107
▁auktoris	-10108
▁efterfrågan	-10109
dalen	-10110
data	-10111
▁älsk	-10112
fat	-10113
▁Oskar	-10114
▁sken	-10115
▁Kanada	-10116
▁sajter	-10117
▁järnväg	-10118
föränd	-10119
▁titlar	-10120
värden	-10121
▁advent	-10122
au	-10123
job	-10124
märken	-10125
▁sköta	-10126
▁värden	-10127
kedja	-10128
▁daliga	-10129
▁återvin	-10130
▁röv	-10131
ttag	-10132
visar	-10133
▁återkommande	-10134
tagare	-10135
▁decenn	-10136
▁godkänt	-10137
ownlo	-10138
svik	-10139
▁bif	-10140
DF	-10141
▁dl	-10142
▁tve	-10143
▁uttag	-10144
iseras	-10145
▁Oscar	-10146
▁high	-10147
▁jordbruk	-10148
▁nödvändig	-10149
kamer	-10150
säker	-10151
▁introduc	-10152
▁ml	-10153
▁punkter	-10154
götland	-10155
▁riksdagen	-10156
ftare	-10157
▁seriös	-10158
▁rådgivning	-10159
▁underlättar	-10160
hållanden	-10161
▁syskon	-10162
usar	-10163
mag	-10164
blomm	-10165
lleri	-10166
▁Extra	-10167
cancer	-10168
▁fraga	-10169
▁brittiska	-10170
oween	-10171
leva	-10172
smode	-10173
▁trygga	-10174
▁kulture	-10175
amb	-10176
cern	-10177
▁integritet	-10178
▁hungr	-10179
arin	-10180
▁flit	-10181
▁kaka	-10182
▁tillhörande	-10183
▁hyfs	-10184
▁överst	-10185
▁tillkommer	-10186
▁Sky	-10187
yal	-10188
ikna	-10189
▁cock	-10190
regler	-10191
▁Boll	-10192
▁odling	-10193
▁nämna	-10194
▁dagsläget	-10195
▁äga	-10196
▁his	-10197
▁rekrytering	-10198
▁konver	-10199
▁panel	-10200
skrav	-10201
▁hundarna	-10202
▁lar	-10203
▁Viagra	-10204
▁sjunga	-10205
▁foten	-10206
▁pojke	-10207
briken	-10208
▁Spar	-10209
▁Ã	-10210
fun	-10211
plattor	-10212
▁kommentera	-10213
erry	-10214
▁Arena	-10215
▁arbetslös	-10216
▁förloss	-10217
handlingen	-10218
▁plån	-10219
sterande	-10220
▁hjälpt	-10221
▁dansk	-10222
eram	-10223
▁skyl	-10224
di	-10225
▁fläkt	-10226
▁sundsvall	-10227
cing	-10228
▁power	-10229
PR	-10230
▁Kund	-10231
▁nark	-10232
▁italienska	-10233
riska	-10234
▁anpassad	-10235
▁infrastruktur	-10236
▁hoppade	-10237
▁smakar	-10238
▁distrikt	-10239
stuga	-10240
uppdrag	-10241
▁somna	-10242
▁märks	-10243
ete	-10244
uffé	-10245
▁filer	-10246
ekv	-10247
rans	-10248
företaget	-10249
berätt	-10250
▁gälla	-10251
▁dynam	-10252
▁relevant	-10253
▁stallet	-10254
/5	-10255
▁nedanför	-10256
▁färska	-10257
▁granska	-10258
▁elit	-10259
▁2019	-10260
▁Lenn	-10261
▁alli	-10262
▁Mötesplatsen	-10263
▁cum	-10264
-201	-10265
ingers	-10266
gjort	-10267
▁Christian	-10268
rottning	-10269
▁Cal	-10270
▁Sverigedemokrat	-10271
yssel	-10272
plåt	-10273
▁enstaka	-10274
▁Schweiz	-10275
▁katastrof	-10276
▁stilar	-10277
▁Lika	-10278
▁Hav	-10279
▁smaka	-10280
▁sper	-10281
▁action	-10282
snivå	-10283
▁Australien	-10284
▁knappen	-10285
▁doktor	-10286
▁minus	-10287
▁handlingar	-10288
▁uppehåll	-10289
▁init	-10290
▁International	-10291
▁konkurrenskraft	-10292
▁XXX	-10293
▁kanaler	-10294
▁ansluta	-10295
▁kakor	-10296
▁entreprenör	-10297
▁Jär	-10298
▁OK	-10299
ces	-10300
hor	-10301
▁Möj	-10302
▁utländska	-10303
▁anläggningar	-10304
eby	-10305
▁Lov	-10306
▁Smål	-10307
plom	-10308
▁term	-10309
▁jäkla	-10310
mör	-10311
osit	-10312
▁kostnaden	-10313
▁flyger	-10314
▁jämna	-10315
stillfäll	-10316
▁åldrar	-10317
▁Priset	-10318
rund	-10319
▁säljare	-10320
▁upptäcker	-10321
▁Special	-10322
▁Nå	-10323
▁tilltal	-10324
▁underhållning	-10325
▁uppger	-10326
▁läsning	-10327
▁43	-10328
▁mäkt	-10329
▁värdet	-10330
änkar	-10331
hon	-10332
▁besökt	-10333
adala	-10334
▁konstant	-10335
rumpor	-10336
ords	-10337
▁Press	-10338
▁diskussioner	-10339
▁föräldrarna	-10340
▁anim	-10341
bony	-10342
▁manus	-10343
▁garanterar	-10344
check	-10345
ägna	-10346
▁migr	-10347
▁skon	-10348
▁såna	-10349
▁näringsliv	-10350
oung	-10351
skriget	-10352
▁radi	-10353
▁fixar	-10354
▁Speciellt	-10355
▁pojkvän	-10356
▁väll	-10357
mart	-10358
▁arkiv	-10359
▁Rekomm	-10360
▁användes	-10361
▁Golf	-10362
▁täcka	-10363
▁rätter	-10364
▁närvaro	-10365
▁vass	-10366
▁meddela	-10367
▁Beach	-10368
▁konstatera	-10369
▁miljöp	-10370
tjänsten	-10371
▁Dra	-10372
▁700	-10373
▁intervjuer	-10374
▁Fortsätt	-10375
cl	-10376
▁prylar	-10377
äge	-10378
▁utförs	-10379
AND	-10380
▁kabel	-10381
▁kup	-10382
höjd	-10383
▁stav	-10384
▁rubriken	-10385
sförening	-10386
▁Såg	-10387
▁förstått	-10388
▁Helena	-10389
amman	-10390
▁д	-10391
▁Mör	-10392
UL	-10393
▁7.	-10394
äser	-10395
▁framgår	-10396
▁religion	-10397
ikern	-10398
▁2,5	-10399
▁idén	-10400
shuset	-10401
▁Troll	-10402
tio	-10403
▁kallat	-10404
▁laddning	-10405
▁genomförs	-10406
%.	-10407
änte	-10408
komsten	-10409
▁Forum	-10410
hö	-10411
▁kollat	-10412
▁virus	-10413
▁Sma	-10414
▁ved	-10415
▁delade	-10416
▁individuella	-10417
▁byte	-10418
▁manat	-10419
▁linjer	-10420
▁gest	-10421
▁ljusstyrka	-10422
▁skolans	-10423
▁vilt	-10424
▁semestern	-10425
▁föräldra	-10426
▁Beskrivning	-10427
▁självklar	-10428
mod	-10429
▁testade	-10430
▁världs	-10431
▁lung	-10432
▁here	-10433
▁talat	-10434
▁Josef	-10435
▁sexfilmer	-10436
▁Nils	-10437
▁95	-10438
▁refinans	-10439
▁släpptes	-10440
tjänster	-10441
▁tram	-10442
▁sakna	-10443
stjänster	-10444
lampa	-10445
▁råvaror	-10446
ious	-10447
▁reglerna	-10448
▁rabatter	-10449
kultur	-10450
▁trott	-10451
sfull	-10452
▁rapporten	-10453
▁escortt	-10454
▁PR	-10455
ican	-10456
▁United	-10457
NA	-10458
adalafil	-10459
ydnad	-10460
▁Recept	-10461
▁Blond	-10462
▁Blog	-10463
▁resultaten	-10464
▁ytterst	-10465
▁Central	-10466
▁glömmer	-10467
▁troligtvis	-10468
▁every	-10469
leverant	-10470
▁framgångsrika	-10471
▁Tob	-10472
▁vuxit	-10473
▁slutat	-10474
▁cool	-10475
▁montering	-10476
iske	-10477
ures	-10478
▁förkyl	-10479
▁brister	-10480
▁djupa	-10481
ebror	-10482
▁Plats	-10483
▁Business	-10484
▁ru	-10485
bröd	-10486
▁dyrare	-10487
▁förvir	-10488
▁heltid	-10489
▁good	-10490
▁förslaget	-10491
▁webbsida	-10492
okaler	-10493
▁flashback	-10494
▁influ	-10495
▁parall	-10496
steknik	-10497
iper	-10498
▁Solna	-10499
-16	-10500
atern	-10501
▁fruktansvärt	-10502
▁Portug	-10503
▁Dels	-10504
▁videoklipp	-10505
▁lämpliga	-10506
▁fäll	-10507
▁utställningen	-10508
100	-10509
▁nöje	-10510
▁moln	-10511
▁Jenn	-10512
▁pizza	-10513
▁åstad	-10514
▁Försäkring	-10515
▁uppfylla	-10516
▁allvarliga	-10517
tagna	-10518
▁tävlar	-10519
▁högskola	-10520
▁koppling	-10521
▁receptet	-10522
anmärkningar	-10523
▁identifier	-10524
▁trupp	-10525
rörelsen	-10526
▁utbudet	-10527
skväll	-10528
▁skivor	-10529
▁högtal	-10530
▁sed	-10531
holms	-10532
▁Ännu	-10533
▁förstod	-10534
▁presentkort	-10535
▁Ifall	-10536
▁Försvar	-10537
▁bevar	-10538
▁about	-10539
▁sanningen	-10540
▁sec	-10541
▁tjejen	-10542
aktör	-10543
renover	-10544
▁inuti	-10545
undersökning	-10546
ussen	-10547
▁Miljö	-10548
▁Härligt	-10549
omer	-10550
▁livs	-10551
▁samarbetet	-10552
▁Jämt	-10553
länderna	-10554
▁risker	-10555
▁sänka	-10556
▁Ret	-10557
▁James	-10558
esten	-10559
▁Axel	-10560
▁klarade	-10561
▁06	-10562
▁färgerna	-10563
▁frustr	-10564
▁terror	-10565
resan	-10566
▁analysera	-10567
▁49	-10568
▁Skönt	-10569
▁kvarter	-10570
▁dök	-10571
▁Text	-10572
▁Hotellet	-10573
agement	-10574
▁Hex	-10575
▁any	-10576
ektionen	-10577
▁bes	-10578
▁modernt	-10579
▁sköt	-10580
läggningen	-10581
pri	-10582
▁arbeten	-10583
▁avslutade	-10584
▁finalen	-10585
kläd	-10586
artiklar	-10587
cert	-10588
Men	-10589
▁osk	-10590
useet	-10591
▁maila	-10592
pression	-10593
ogs	-10594
▁himlen	-10595
▁filter	-10596
▁dörrar	-10597
▁bin	-10598
▁Harry	-10599
▁solna	-10600
▁sökte	-10601
▁gilt	-10602
varu	-10603
▁2014.	-10604
▁seminar	-10605
sång	-10606
▁Läns	-10607
▁Girls	-10608
FS	-10609
▁kust	-10610
▁placeras	-10611
glöm	-10612
▁stämning	-10613
vården	-10614
▁jordgubbar	-10615
▁kämpa	-10616
▁pålit	-10617
▁Fir	-10618
▁kla	-10619
▁cykl	-10620
rediter	-10621
▁återupp	-10622
▁Lyss	-10623
nxx	-10624
▁Rab	-10625
▁parad	-10626
ér	-10627
infl	-10628
▁fullständigt	-10629
▁tviv	-10630
▁Skatt	-10631
▁hemsidor	-10632
▁hämtar	-10633
▁inspirerad	-10634
kät	-10635
▁Las	-10636
jänsten	-10637
▁tappar	-10638
▁negativt	-10639
▁laddar	-10640
▁Barcelona	-10641
kanten	-10642
▁överför	-10643
▁90-	-10644
▁skum	-10645
vic	-10646
▁Gott	-10647
▁ultim	-10648
▁toner	-10649
▁fungerade	-10650
▁Neder	-10651
åkning	-10652
▁ph	-10653
▁läkar	-10654
▁tillfreds	-10655
▁Vas	-10656
▁avse	-10657
▁konkurs	-10658
erings	-10659
▁fordonet	-10660
▁flagg	-10661
▁somras	-10662
▁valfri	-10663
▁ID	-10664
▁Löf	-10665
▁indik	-10666
▁lärde	-10667
▁degen	-10668
▁politiskt	-10669
porn	-10670
ilia	-10671
öjer	-10672
▁phot	-10673
▁kassan	-10674
▁växel	-10675
▁ori	-10676
▁Svenskt	-10677
▁insidan	-10678
▁fantasi	-10679
skra	-10680
▁Engel	-10681
▁Röd	-10682
häst	-10683
▁fabrik	-10684
▁mättnad	-10685
CC	-10686
▁vakt	-10687
▁Verksamhet	-10688
▁sticker	-10689
▁High	-10690
ima	-10691
▁tufft	-10692
eken	-10693
kött	-10694
▁Est	-10695
▁jätteg	-10696
ansar	-10697
▁produktionen	-10698
▁oh	-10699
PA	-10700
▁Hardcore	-10701
sung	-10702
▁Låg	-10703
▁åldern	-10704
▁nödvändiga	-10705
▁kraftig	-10706
▁bot	-10707
1]	-10708
pröv	-10709
ues	-10710
sproblem	-10711
▁sej	-10712
fältet	-10713
▁soff	-10714
▁Vänster	-10715
issionen	-10716
▁ansöker	-10717
▁Spr	-10718
▁blank	-10719
▁Små	-10720
▁bab	-10721
▁hockey	-10722
▁Helsingfors	-10723
▁sevärdheter	-10724
▁oftare	-10725
kiska	-10726
▁bryter	-10727
▁dragit	-10728
▁talas	-10729
▁Kristianstad	-10730
▁RGB	-10731
hämtning	-10732
▁global	-10733
▁påpe	-10734
ämning	-10735
▁försk	-10736
▁längden	-10737
▁tankarna	-10738
▁slagit	-10739
iano	-10740
▁Fam	-10741
▁anti	-10742
jet	-10743
gjord	-10744
▁Väg	-10745
▁torsdagen	-10746
▁Escorts	-10747
▁konstaterar	-10748
duct	-10749
cha	-10750
▁sonen	-10751
▁negativ	-10752
▁Fol	-10753
satser	-10754
▁Guds	-10755
▁läggas	-10756
▁Sexy	-10757
Om	-10758
▁denne	-10759
▁enskild	-10760
▁Falun	-10761
▁house	-10762
▁kräva	-10763
celler	-10764
▁skri	-10765
▁redig	-10766
▁Welcome	-10767
▁ursprungliga	-10768
▁asyl	-10769
▁lugna	-10770
terande	-10771
isser	-10772
lock	-10773
/11	-10774
▁mynt	-10775
shandel	-10776
▁vilda	-10777
▁omständigheter	-10778
▁hatar	-10779
▁nåd	-10780
kg	-10781
▁bekanta	-10782
▁Patrik	-10783
▁upplevt	-10784
▁handtag	-10785
ason	-10786
▁47	-10787
elie	-10788
▁Run	-10789
sliv	-10790
talets	-10791
▁Åt	-10792
gaende	-10793
enser	-10794
▁Sens	-10795
▁trycker	-10796
▁bankkonto	-10797
▁leker	-10798
sättnings	-10799
åsar	-10800
▁falla	-10801
icke	-10802
▁Rid	-10803
shot	-10804
▁sökande	-10805
▁dansa	-10806
dröm	-10807
▁Tog	-10808
▁påstå	-10809
▁strålande	-10810
▁Soll	-10811
▁bildades	-10812
▁vandrar	-10813
oler	-10814
hen	-10815
▁Tomm	-10816
▁genu	-10817
ail	-10818
▁byggs	-10819
▁Indien	-10820
▁More	-10821
▁honung	-10822
hast	-10823
▁lak	-10824
▁olje	-10825
▁Alternativ	-10826
▁fristående	-10827
änslan	-10828
▁nm	-10829
▁Swed	-10830
▁Vä	-10831
ddevalla	-10832
▁Fitta	-10833
▁begagnade	-10834
▁grabb	-10835
▁Bilden	-10836
KT	-10837
▁tunna	-10838
▁Contin	-10839
▁Ke	-10840
▁föreningens	-10841
▁Julia	-10842
▁Övriga	-10843
inka	-10844
2)	-10845
▁somnade	-10846
samtal	-10847
Sc	-10848
▁Annika	-10849
ye	-10850
yft	-10851
▁flaska	-10852
▁gluten	-10853
▁upplägg	-10854
▁Rosen	-10855
▁Mod	-10856
ibb	-10857
▁minuten	-10858
ställande	-10859
▁sålde	-10860
▁hemskt	-10861
berget	-10862
▁if	-10863
▁tagits	-10864
▁majoritet	-10865
verksamheten	-10866
Mar	-10867
▁killen	-10868
▁Skån	-10869
▁tyng	-10870
▁innefattar	-10871
▁övergripande	-10872
▁May	-10873
▁kemikali	-10874
▁Män	-10875
▁Fina	-10876
värdering	-10877
▁lås	-10878
▁medlemmarna	-10879
▁Dahl	-10880
▁Ytterligare	-10881
▁line	-10882
▁Rosa	-10883
▁ställt	-10884
▁digitalt	-10885
▁kollega	-10886
▁missade	-10887
▁normala	-10888
▁gard	-10889
▁Inv	-10890
▁föredrag	-10891
▁Ansök	-10892
▁tuffa	-10893
▁bevara	-10894
ocke	-10895
temot	-10896
inarium	-10897
▁kik	-10898
▁Börja	-10899
▁division	-10900
▁källor	-10901
▁grat	-10902
där	-10903
stedt	-10904
▁åtal	-10905
▁vänlig	-10906
utbud	-10907
▁religi	-10908
31	-10909
38	-10910
▁bana	-10911
▁flexibel	-10912
▁avancerad	-10913
▁dop	-10914
▁inkomster	-10915
▁politisk	-10916
NG	-10917
▁2004	-10918
outh	-10919
▁omdömen	-10920
▁föreläsning	-10921
givna	-10922
▁innovativa	-10923
▁snick	-10924
▁FF	-10925
ates	-10926
▁05	-10927
gang	-10928
▁1500	-10929
▁But	-10930
▁Cialis	-10931
▁trafiken	-10932
▁Ida	-10933
varon	-10934
▁tjugo	-10935
▁expon	-10936
▁ät	-10937
▁Sexig	-10938
-9	-10939
▁öppnas	-10940
▁Bay	-10941
▁verkstad	-10942
▁omsättning	-10943
syr	-10944
▁Tryck	-10945
▁ansåg	-10946
▁ungefärlig	-10947
ierade	-10948
▁fäl	-10949
▁MS	-10950
▁Sur	-10951
▁Blek	-10952
▁ramen	-10953
▁julafton	-10954
udi	-10955
▁cur	-10956
seffektiv	-10957
▁AS	-10958
▁escorter	-10959
EC	-10960
▁vardagsrummet	-10961
▁konsul	-10962
ynn	-10963
▁meriter	-10964
▁HÄR	-10965
OD	-10966
▁spekt	-10967
▁argument	-10968
unde	-10969
▁måndagen	-10970
▁Egentligen	-10971
-09	-10972
▁Blom	-10973
▁adult	-10974
▁matcha	-10975
▁mell	-10976
gam	-10977
▁Skellefteå	-10978
analys	-10979
▁planerade	-10980
öpp	-10981
▁plugg	-10982
sökande	-10983
▁ägna	-10984
▁kreditbetyg	-10985
don	-10986
▁koppar	-10987
▁pyssel	-10988
34	-10989
ilja	-10990
▁sätts	-10991
▁människorna	-10992
stäver	-10993
äby	-10994
▁ti	-10995
▁04	-10996
▁imorse	-10997
▁söndags	-10998
smaterial	-10999
▁ansvaret	-11000
ibilitet	-11001
▁shop	-11002
▁Vegas	-11003
tagning	-11004
▁skedde	-11005
▁funderat	-11006
▁beredd	-11007
▁bron	-11008
▁SS	-11009
▁Event	-11010
bw	-11011
ative	-11012
yrka	-11013
▁bytte	-11014
▁skådespelare	-11015
▁ank	-11016
▁fixat	-11017
pump	-11018
▁regelbundna	-11019
▁orsaka	-11020
▁mångfald	-11021
▁båtar	-11022
▁försäm	-11023
▁halvtim	-11024
37	-11025
▁lyckad	-11026
▁Char	-11027
▁spelautomater	-11028
▁djupare	-11029
▁Class	-11030
▁datings	-11031
ändes	-11032
▁Britt	-11033
▁efterfråg	-11034
▁oroa	-11035
verkare	-11036
▁Åke	-11037
▁källa	-11038
▁skala	-11039
:5	-11040
lä	-11041
▁utsläpp	-11042
hagen	-11043
▁prisvärda	-11044
▁8.	-11045
▁Skövde	-11046
IA	-11047
berga	-11048
gräs	-11049
utbildningen	-11050
▁studien	-11051
▁långsiktigt	-11052
▁vardagar	-11053
▁förtjänar	-11054
sprogrammet	-11055
▁möjligheterna	-11056
aa	-11057
▁saft	-11058
▁gävle	-11059
▁Fer	-11060
esc	-11061
▁sammanlagt	-11062
räning	-11063
▁halvt	-11064
ituation	-11065
▁bevak	-11066
match	-11067
▁innanför	-11068
▁minimal	-11069
▁Silver	-11070
▁Södertälje	-11071
▁bero	-11072
direkt	-11073
kategor	-11074
▁vik	-11075
▁årligen	-11076
ynäs	-11077
▁anledningar	-11078
nej	-11079
▁abonnemang	-11080
▁bakåt	-11081
▁Mia	-11082
försörj	-11083
▁hallen	-11084
▁hor	-11085
skytt	-11086
▁legen	-11087
▁upptäckt	-11088
▁segr	-11089
▁militär	-11090
skador	-11091
fotograf	-11092
▁arab	-11093
ancake	-11094
▁målar	-11095
▁tva	-11096
▁klag	-11097
utter	-11098
▁Stre	-11099
▁Medlem	-11100
▁dottern	-11101
▁King	-11102
sskolan	-11103
▁flest	-11104
ändare	-11105
▁jackp	-11106
▁bik	-11107
ular	-11108
▁upplevelsen	-11109
▁minskning	-11110
▁Livet	-11111
▁nöt	-11112
▁Fuck	-11113
▁kommunerna	-11114
adels	-11115
0.	-11116
inas	-11117
▁våglängd	-11118
▁förväntar	-11119
UT	-11120
▁skämt	-11121
!"	-11122
▁färgton	-11123
▁kjol	-11124
▁förälder	-11125
moder	-11126
▁plug	-11127
▁(1)	-11128
▁överhuvud	-11129
▁uppgifterna	-11130
▁gumm	-11131
▁operation	-11132
▁tings	-11133
▁SA	-11134
▁ving	-11135
skolans	-11136
▁öga	-11137
ownload	-11138
▁kvaliteten	-11139
▁omgivning	-11140
arden	-11141
▁tackar	-11142
▁museum	-11143
▁Master	-11144
▁odds	-11145
fordon	-11146
stora	-11147
▁ball	-11148
▁pekar	-11149
BA	-11150
▁tjänste	-11151
▁Bör	-11152
bilen	-11153
▁missar	-11154
▁vandra	-11155
peln	-11156
▁Comp	-11157
▁beslutade	-11158
innet	-11159
▁hårdare	-11160
amöter	-11161
▁utställ	-11162
▁porträtt	-11163
ty	-11164
▁Digital	-11165
▁Los	-11166
▁Stand	-11167
;)	-11168
▁vänskap	-11169
uster	-11170
gy	-11171
row	-11172
ves	-11173
▁pict	-11174
▁kreativitet	-11175
▁utrymmen	-11176
▁tvek	-11177
▁distribut	-11178
itra	-11179
▁kapitel	-11180
▁flertalet	-11181
39	-11182
▁onsdagen	-11183
▁hjälpmedel	-11184
sliga	-11185
▁beställt	-11186
▁Eskorter	-11187
▁baseras	-11188
▁samord	-11189
▁tittat	-11190
▁badrummet	-11191
▁Ola	-11192
▁Blue	-11193
hammar	-11194
ople	-11195
</	-11196
dam	-11197
▁stärker	-11198
▁perioder	-11199
▁hamnat	-11200
chn	-11201
stationen	-11202
▁Lant	-11203
enskapen	-11204
▁tillhandahåller	-11205
▁orsaken	-11206
▁Niklas	-11207
▁use	-11208
▁prester	-11209
▁tras	-11210
▁förmedla	-11211
▁dubbelt	-11212
▁chatta	-11213
bjudanden	-11214
▁plock	-11215
▁hölls	-11216
▁vice	-11217
▁renovering	-11218
inet	-11219
▁pick	-11220
▁japanska	-11221
▁Direkt	-11222
▁Bolaget	-11223
▁rand	-11224
▁arrangerar	-11225
▁befolkningen	-11226
▁pressmeddelande	-11227
öjan	-11228
ape	-11229
▁utmärkel	-11230
illkor	-11231
▁frig	-11232
▁tårta	-11233
förbruk	-11234
▁valuta	-11235
rel	-11236
▁stockholms	-11237
poäng	-11238
svenskan	-11239
rab	-11240
villkor	-11241
emperatur	-11242
xa	-11243
orit	-11244
▁kombinerar	-11245
ettera	-11246
▁fåglar	-11247
▁vinsten	-11248
▁Ther	-11249
▁belägen	-11250
delningar	-11251
oten	-11252
ricka	-11253
fullmäktige	-11254
rorna	-11255
▁synnerhet	-11256
uge	-11257
▁virt	-11258
ipro	-11259
▁span	-11260
▁ägs	-11261
▁mörd	-11262
▁Lunds	-11263
▁Funder	-11264
▁Kvar	-11265
▁origin	-11266
▁specifikt	-11267
▁köpare	-11268
▁skåp	-11269
▁medic	-11270
lägga	-11271
▁panik	-11272
▁hudvård	-11273
▁Cop	-11274
dy	-11275
iled	-11276
-17	-11277
▁Sov	-11278
▁nut	-11279
▁OCH	-11280
▁hävdar	-11281
xy	-11282
▁förlorar	-11283
▁avsikt	-11284
▁strategier	-11285
▁Cas	-11286
▁hobby	-11287
▁Ingr	-11288
▁förebygga	-11289
ålen	-11290
varna	-11291
▁inspirera	-11292
cyk	-11293
▁strö	-11294
▁skrivande	-11295
▁Trip	-11296
▁hjärn	-11297
▁växjö	-11298
▁läcker	-11299
ymnas	-11300
sperson	-11301
▁stipend	-11302
▁pra	-11303
jöt	-11304
▁shemale	-11305
▁HSL	-11306
▁Europe	-11307
▁Topp	-11308
domar	-11309
▁Teen	-11310
▁mill	-11311
llar	-11312
▁dies	-11313
▁Spotify	-11314
agt	-11315
sförbund	-11316
oarer	-11317
▁sthlm	-11318
▁byggas	-11319
kea	-11320
▁Miss	-11321
▁kartan	-11322
skaff	-11323
▁posten	-11324
olen	-11325
politik	-11326
veriges	-11327
▁lektion	-11328
▁säkerhets	-11329
▁avslöja	-11330
▁uttrycka	-11331
uvida	-11332
itation	-11333
ualitet	-11334
▁deltagande	-11335
▁luck	-11336
▁aterbetalning	-11337
jal	-11338
▁hett	-11339
▁Lager	-11340
▁varan	-11341
▁psykisk	-11342
följer	-11343
▁stretch	-11344
▁trender	-11345
Ch	-11346
▁altan	-11347
▁anteck	-11348
shirt	-11349
▁Cum	-11350
▁reson	-11351
media	-11352
▁arrangeras	-11353
fick	-11354
mottag	-11355
▁nyan	-11356
▁placerade	-11357
▁tränat	-11358
▁skärgård	-11359
scent	-11360
▁hängde	-11361
attar	-11362
▁statliga	-11363
▁extrem	-11364
omi	-11365
▁tatu	-11366
▁hov	-11367
▁avtalet	-11368
idrott	-11369
stopp	-11370
tvätt	-11371
▁programmer	-11372
▁4-	-11373
▁Kata	-11374
ales	-11375
▁sympt	-11376
▁djuren	-11377
▁patienten	-11378
▁ekonomin	-11379
sverket	-11380
▁bränsle	-11381
85	-11382
cernen	-11383
▁aspekter	-11384
▁lund	-11385
▁lokalen	-11386
▁mellanrum	-11387
▁elast	-11388
▁ess	-11389
oty	-11390
yren	-11391
▁omedelbar	-11392
ckad	-11393
▁medicinsk	-11394
▁serverar	-11395
milj	-11396
▁Kors	-11397
▁examen	-11398
▁Bod	-11399
petens	-11400
▁jacka	-11401
etenskap	-11402
▁Arbets	-11403
▁kostnadsfri	-11404
▁spet	-11405
yder	-11406
mann	-11407
▁Hittade	-11408
▁väntas	-11409
ikapp	-11410
inkar	-11411
▁Trän	-11412
▁Mont	-11413
▁medie	-11414
▁hoppar	-11415
▁projektledare	-11416
▁56	-11417
▁karlstad	-11418
▁tappat	-11419
▁mekan	-11420
▁Kol	-11421
▁ljust	-11422
▁drack	-11423
▁stödjer	-11424
oritet	-11425
▁April	-11426
▁spelande	-11427
▁förvånad	-11428
▁Särskilt	-11429
▁utmanande	-11430
▁Birg	-11431
......	-11432
▁Ker	-11433
napp	-11434
▁Ev	-11435
▁leende	-11436
▁shoppa	-11437
▁tub	-11438
▁firade	-11439
▁Tum	-11440
ittle	-11441
▁försiktig	-11442
▁resenärer	-11443
▁Hjälp	-11444
▁köpmän	-11445
inska	-11446
▁Snygg	-11447
▁rostfritt	-11448
ington	-11449
slån	-11450
▁allerg	-11451
oto	-11452
sall	-11453
▁blyg	-11454
▁gåva	-11455
▁в	-11456
▁AD	-11457
cle	-11458
▁räcka	-11459
namnet	-11460
▁godkännande	-11461
▁BM	-11462
entarer	-11463
▁fördela	-11464
årige	-11465
▁jämt	-11466
▁Beg	-11467
jacka	-11468
EG	-11469
▁kläderna	-11470
fru	-11471
ortering	-11472
känn	-11473
▁apoteket	-11474
▁förebyggande	-11475
amod	-11476
▁sprider	-11477
halla	-11478
▁förklaring	-11479
▁Aftonbladet	-11480
▁Tors	-11481
decimal	-11482
▁Jer	-11483
▁medvetna	-11484
▁accepterar	-11485
▁representanter	-11486
▁barnets	-11487
▁Drag	-11488
färgmodellen	-11489
färgutrymmet	-11490
sfärgkoden	-11491
▁förverk	-11492
▁inteck	-11493
▁redskap	-11494
▁kvinnorna	-11495
▁Fors	-11496
▁graviditet	-11497
▁host	-11498
▁assistans	-11499
ää	-11500
▁trist	-11501
▁Mö	-11502
▁Njut	-11503
▁Hexdecimal	-11504
▁beställer	-11505
▁rymmer	-11506
▁medicinska	-11507
▁tilläg	-11508
gern	-11509
▁ljudet	-11510
▁iPad	-11511
▁Energi	-11512
▁IKEA	-11513
ctive	-11514
▁lampor	-11515
▁matematik	-11516
▁meny	-11517
läggen	-11518
▁White	-11519
▁fixade	-11520
▁mässan	-11521
▁hållas	-11522
▁tillförlit	-11523
/4	-11524
▁Dejta	-11525
▁berömda	-11526
▁hust	-11527
bul	-11528
▁Flash	-11529
nis	-11530
▁stuga	-11531
▁underhållande	-11532
▁Mäl	-11533
▁festival	-11534
▁Människor	-11535
tider	-11536
cket	-11537
baserad	-11538
arina	-11539
ässiga	-11540
▁fans	-11541
priser	-11542
komligt	-11543
▁billan	-11544
▁utrustad	-11545
▁ingå	-11546
▁bensin	-11547
▁närliggande	-11548
▁Ak	-11549
litteratur	-11550
▁onödigt	-11551
rut	-11552
▁Mora	-11553
▁spin	-11554
▁supp	-11555
skriven	-11556
▁kolhydr	-11557
ield	-11558
▁University	-11559
effekt	-11560
▁förlorat	-11561
▁Che	-11562
▁avbr	-11563
▁råkar	-11564
▁förmågan	-11565
▁miljöm	-11566
▁narkot	-11567
▁avdelning	-11568
ymer	-11569
▁Aldre	-11570
▁teori	-11571
▁försvinna	-11572
▁kundtjänst	-11573
▁Motor	-11574
låda	-11575
▁Problemet	-11576
▁Holl	-11577
▁Victoria	-11578
bag	-11579
smöjligheter	-11580
fet	-11581
planen	-11582
▁what	-11583
bilitering	-11584
idas	-11585
▁meningen	-11586
inga	-11587
sfullt	-11588
▁ambul	-11589
▁6,	-11590
innor	-11591
ströms	-11592
iki	-11593
rasil	-11594
ird	-11595
▁Idrott	-11596
▁arbetsmarknaden	-11597
▁arbetssätt	-11598
▁likadan	-11599
▁Ras	-11600
▁äppel	-11601
▁Centrum	-11602
▁Af	-11603
IR	-11604
▁kundens	-11605
:.	-11606
bod	-11607
▁She	-11608
▁faktor	-11609
ångt	-11610
▁julklappar	-11611
▁kompens	-11612
▁utnyttj	-11613
▁Klockan	-11614
▁garant	-11615
VA	-11616
▁mad	-11617
▁Letar	-11618
▁(200	-11619
▁drömmer	-11620
▁tomten	-11621
▁mötesplats	-11622
▁majoriteten	-11623
ops	-11624
▁överhuvudtaget	-11625
▁flykting	-11626
▁externa	-11627
49	-11628
▁hardcore	-11629
växten	-11630
▁förfl	-11631
lösningar	-11632
▁Fyra	-11633
▁dolda	-11634
▁sökning	-11635
ра	-11636
▁feed	-11637
▁Lim	-11638
▁Flor	-11639
▁Antalet	-11640
ado	-11641
▁sakerna	-11642
▁kross	-11643
▁kusin	-11644
▁(19	-11645
▁länet	-11646
▁byggnaden	-11647
▁filtr	-11648
▁rulla	-11649
▁orsakar	-11650
▁anhöriga	-11651
cat	-11652
▁ått	-11653
bilda	-11654
valet	-11655
▁House	-11656
▁borgenärer	-11657
ane	-11658
▁läger	-11659
onden	-11660
▁matcherna	-11661
▁Villa	-11662
▁meddelar	-11663
▁Lennart	-11664
▁Grupp	-11665
sstyr	-11666
bileum	-11667
ental	-11668
▁malmo	-11669
▁Viktor	-11670
▁hemmaplan	-11671
▁pasta	-11672
arter	-11673
▁filmerna	-11674
ävlingar	-11675
▁Naturligtvis	-11676
▁vackraste	-11677
▁10.	-11678
ford	-11679
▁problemen	-11680
▁montera	-11681
на	-11682
sann	-11683
▁Juni	-11684
▁2-3	-11685
▁slapp	-11686
▁permanent	-11687
▁Björk	-11688
▁tisdagen	-11689
▁inställningar	-11690
lås	-11691
▁Tjeck	-11692
istent	-11693
▁uppdateringar	-11694
fla	-11695
anläggning	-11696
tabel	-11697
▁öst	-11698
älden	-11699
lings	-11700
▁fördelarna	-11701
▁с	-11702
amens	-11703
spolit	-11704
antera	-11705
▁viner	-11706
▁syftet	-11707
▁1-2	-11708
▁anfall	-11709
▁women	-11710
▁paketet	-11711
gade	-11712
oon	-11713
beskrivning	-11714
pub	-11715
vir	-11716
▁mem	-11717
▁Sommar	-11718
▁utvärder	-11719
▁FÖR	-11720
försvar	-11721
▁halmstad	-11722
▁utb	-11723
▁äck	-11724
▁framtidens	-11725
▁tappa	-11726
▁ikon	-11727
▁Lyck	-11728
MS	-11729
▁Syn	-11730
▁Open	-11731
stillstånd	-11732
▁diskuterar	-11733
▁vant	-11734
shistor	-11735
▁kanel	-11736
▁behåll	-11737
▁snör	-11738
▁sovit	-11739
▁seriösa	-11740
▁användningen	-11741
ear	-11742
но	-11743
verna	-11744
▁melod	-11745
▁utmärkta	-11746
plac	-11747
händer	-11748
▁implem	-11749
▁hentai	-11750
hållet	-11751
▁måndags	-11752
obel	-11753
▁lärar	-11754
▁välfärd	-11755
▁bredband	-11756
▁njutning	-11757
▁Portugal	-11758
▁hekt	-11759
▁Malmo	-11760
▁Rog	-11761
kommun	-11762
tat	-11763
▁björ	-11764
▁Belgi	-11765
märkt	-11766
maskinen	-11767
▁klokt	-11768
rätta	-11769
skiva	-11770
▁översikt	-11771
%)	-11772
▁känslig	-11773
▁långvar	-11774
▁las	-11775
▁Youtube	-11776
▁godkända	-11777
▁fotografering	-11778
▁Ze	-11779
ukor	-11780
76	-11781
istiken	-11782
sborg	-11783
▁stående	-11784
▁männen	-11785
▁visning	-11786
▁Elisa	-11787
▁inblandade	-11788
▁camping	-11789
▁skilja	-11790
▁Bäst	-11791
▁bokat	-11792
▁åtgärd	-11793
sfl	-11794
modell	-11795
▁kandidat	-11796
▁anklag	-11797
▁bedr	-11798
▁lånet	-11799
▁Sör	-11800
▁sålt	-11801
▁löv	-11802
▁skäm	-11803
▁ränte	-11804
rent	-11805
golv	-11806
▁parken	-11807
▁komplement	-11808
▁Borl	-11809
-05	-11810
äddra	-11811
▁medarbet	-11812
▁fåtal	-11813
▁fattig	-11814
▁slät	-11815
vat	-11816
▁olag	-11817
▁chefer	-11818
▁bedriver	-11819
eslag	-11820
enheter	-11821
ensioner	-11822
ffer	-11823
sdags	-11824
▁klubbar	-11825
▁oav	-11826
▁bokstav	-11827
mält	-11828
trans	-11829
▁Tommy	-11830
fång	-11831
assage	-11832
▁trötta	-11833
▁40-	-11834
▁glasögon	-11835
▁islam	-11836
▁party	-11837
▁Träffa	-11838
▁utse	-11839
▁kriter	-11840
▁besluta	-11841
▁ekologiskt	-11842
eshlight	-11843
▁Nyhet	-11844
▁nätverket	-11845
▁barnbarn	-11846
etsar	-11847
▁Jacob	-11848
lix	-11849
▁säkrade	-11850
▁varumärket	-11851
livet	-11852
läggare	-11853
▁borås	-11854
jukdomar	-11855
▁Prova	-11856
▁Förhopp	-11857
▁youtube	-11858
▁tillfälligt	-11859
▁general	-11860
▁Fotograf	-11861
stjärnor	-11862
▁National	-11863
styrelsens	-11864
▁Mex	-11865
▁kaos	-11866
▁Kursen	-11867
lär	-11868
atörer	-11869
lie	-11870
foder	-11871
▁Profess	-11872
vaka	-11873
▁Samhäll	-11874
▁farliga	-11875
▁bul	-11876
▁ändring	-11877
ни	-11878
▁tap	-11879
ize	-11880
▁??	-11881
▁kinesiska	-11882
acka	-11883
▁mall	-11884
▁lila	-11885
savtal	-11886
▁hu	-11887
▁Robin	-11888
▁engagerade	-11889
▁inflytande	-11890
▁parfym	-11891
byggnaden	-11892
▁sjöng	-11893
▁uteslut	-11894
▁detsamma	-11895
▁tonåringar	-11896
▁Buck	-11897
amerika	-11898
▁hållit	-11899
▁italien	-11900
amet	-11901
bostad	-11902
▁testar	-11903
centralen	-11904
▁kanten	-11905
unskaper	-11906
▁rast	-11907
sorganis	-11908
▁kriget	-11909
▁individuellt	-11910
söver	-11911
▁förmiddagen	-11912
ljud	-11913
cykl	-11914
▁blås	-11915
Press	-11916
▁hörnet	-11917
▁gubb	-11918
▁Kjell	-11919
▁övertygad	-11920
▁utbyte	-11921
▁neut	-11922
▁Sub	-11923
7)	-11924
hu	-11925
▁Jessica	-11926
▁tester	-11927
▁gur	-11928
▁varannan	-11929
dor	-11930
ätte	-11931
▁sjukvården	-11932
▁Trädgård	-11933
▁rädsla	-11934
▁fräscha	-11935
▁Lotta	-11936
aganden	-11937
reserv	-11938
medlem	-11939
▁passager	-11940
▁Trump	-11941
▁skym	-11942
▁Högskolan	-11943
▁runtom	-11944
sföreningen	-11945
▁AC	-11946
▁representerar	-11947
▁införa	-11948
▁aktivera	-11949
▁spelaren	-11950
▁Skara	-11951
▁hittas	-11952
▁pröva	-11953
aminer	-11954
▁marin	-11955
▁blivande	-11956
kreta	-11957
▁utvärdering	-11958
▁she	-11959
▁Oslo	-11960
▁Värmland	-11961
främ	-11962
▁påminn	-11963
▁Polen	-11964
smorgon	-11965
▁förvån	-11966
▁immun	-11967
▁bibe	-11968
▁garantera	-11969
blom	-11970
sur	-11971
oster	-11972
ibliotek	-11973
▁gångväg	-11974
▁sannolikhet	-11975
▁blogginlägg	-11976
▁märket	-11977
▁gbg	-11978
▁förank	-11979
▁Fredag	-11980
!?	-11981
▁Link	-11982
▁uppmärksamma	-11983
ändan	-11984
▁Orig	-11985
▁undersökningar	-11986
▁Senare	-11987
atorn	-11988
▁Sjuk	-11989
▁designen	-11990
▁flytande	-11991
▁Anmäl	-11992
▁försäljningen	-11993
▁naked	-11994
▁nervös	-11995
▁läx	-11996
...)	-11997
ädje	-11998
▁ärlig	-11999
▁glans	-12000
▁skra	-12001
kreterare	-12002
bör	-12003
▁kyla	-12004
▁Transport	-12005
ain	-12006
▁överenskommelse	-12007
bitar	-12008
▁Önskar	-12009
historia	-12010
▁välkomnar	-12011
▁huvudvärk	-12012
▁2013.	-12013
gro	-12014
▁tjocka	-12015
86	-12016
riga	-12017
▁levde	-12018
objekt	-12019
▁Leg	-12020
fund	-12021
▁vax	-12022
rus	-12023
etiskt	-12024
▁turen	-12025
▁filen	-12026
3)	-12027
▁54	-12028
▁Vinn	-12029
▁rykt	-12030
▁grovt	-12031
▁hemifrån	-12032
▁tennis	-12033
▁adoos	-12034
▁bestod	-12035
▁kampen	-12036
fråga	-12037
▁hallon	-12038
▁förknipp	-12039
ningssystem	-12040
▁bildar	-12041
▁effekten	-12042
▁stugan	-12043
ollywood	-12044
▁levitra	-12045
skorna	-12046
▁Skandinav	-12047
lon	-12048
!”	-12049
börd	-12050
grunden	-12051
▁hjärna	-12052
▁Samsung	-12053
▁August	-12054
prom	-12055
▁900	-12056
71	-12057
▁Tan	-12058
▁matlagning	-12059
▁våras	-12060
▁husdjur	-12061
▁mont	-12062
▁Gick	-12063
▁torrt	-12064
verkad	-12065
▁vistas	-12066
▁galen	-12067
▁Bud	-12068
▁förvänta	-12069
▁link	-12070
NT	-12071
▁SÅ	-12072
▁publicera	-12073
▁upphandling	-12074
▁Teknik	-12075
got	-12076
▁norrköping	-12077
repp	-12078
tement	-12079
verkande	-12080
▁Fru	-12081
panna	-12082
▁accept	-12083
våg	-12084
▁omdöme	-12085
▁Wild	-12086
▁kakel	-12087
▁psykolog	-12088
jäv	-12089
umpar	-12090
ängar	-12091
hs	-12092
▁elimin	-12093
▁multip	-12094
Pro	-12095
▁bokstäver	-12096
▁skillnader	-12097
äsen	-12098
▁utbildad	-12099
konferens	-12100
städning	-12101
▁gi	-12102
▁luleå	-12103
▁Hemma	-12104
▁strumpor	-12105
sjuk	-12106
▁kick	-12107
▁Manga	-12108
rapport	-12109
▁livslängd	-12110
▁Glas	-12111
▁förbättrar	-12112
▁il	-12113
manland	-12114
▁gällde	-12115
atar	-12116
▁trivas	-12117
assad	-12118
▁Cha	-12119
ming	-12120
lament	-12121
▁Alice	-12122
▁bdsm	-12123
▁innebar	-12124
▁beställde	-12125
▁musiker	-12126
▁närmsta	-12127
säkerhet	-12128
NING	-12129
resultatet	-12130
▁expans	-12131
aktionen	-12132
▁Låter	-12133
▁stenar	-12134
▁regiss	-12135
▁blick	-12136
▁tillsyn	-12137
▁Tour	-12138
pis	-12139
ningsmedel	-12140
typ	-12141
▁märkligt	-12142
▁Day	-12143
personal	-12144
▁skatter	-12145
▁skratta	-12146
▁ursprungligen	-12147
▁förvaltning	-12148
▁mandel	-12149
▁bostadslan	-12150
▁värda	-12151
▁känsliga	-12152
▁talade	-12153
plant	-12154
▁Antal	-12155
▁Jakob	-12156
farenhet	-12157
▁OM	-12158
ningssätt	-12159
maren	-12160
viker	-12161
övlar	-12162
▁sträv	-12163
▁Amanda	-12164
▁smartphone	-12165
▁hamnen	-12166
▁Hotels	-12167
▁UC	-12168
fyllda	-12169
▁vände	-12170
▁regeringens	-12171
▁Vol	-12172
▁world	-12173
▁formuläret	-12174
▁Ursprung	-12175
▁Missa	-12176
▁gentemot	-12177
▁torg	-12178
▁lesbian	-12179
▁anmärk	-12180
▁Koll	-12181
▁fotografera	-12182
▁Snygga	-12183
xamen	-12184
▁Via	-12185
▁genomfört	-12186
iforn	-12187
▁policy	-12188
▁bänk	-12189
bidrag	-12190
▁Välkomna	-12191
▁meddelanden	-12192
▁diabetes	-12193
▁Life	-12194
ION	-12195
slags	-12196
sminister	-12197
▁tillåtet	-12198
ante	-12199
▁prestation	-12200
LA	-12201
▁loppis	-12202
▁Ändå	-12203
▁mild	-12204
▁katten	-12205
▁konkreta	-12206
▁ingång	-12207
▁horm	-12208
▁opin	-12209
▁tummarna	-12210
▁branscher	-12211
,,	-12212
▁överraskning	-12213
vard	-12214
▁Dildo	-12215
eland	-12216
▁servera	-12217
▁instagram	-12218
▁kos	-12219
▁smeten	-12220
regionen	-12221
nyt	-12222
▁narkotika	-12223
svatten	-12224
▁webbsidor	-12225
▁konstnärer	-12226
▁touch	-12227
▁regionala	-12228
▁tappade	-12229
4)	-12230
▁TT	-12231
termin	-12232
▁yng	-12233
▁deklar	-12234
▁anlita	-12235
emens	-12236
▁ordentlig	-12237
unity	-12238
▁kontakten	-12239
▁demokrati	-12240
ence	-12241
▁lyssnade	-12242
▁fro	-12243
▁Gol	-12244
oph	-12245
▁Kra	-12246
▁Num	-12247
▁vagn	-12248
▁platta	-12249
▁keram	-12250
löp	-12251
▁pet	-12252
▁Affär	-12253
▁blåbär	-12254
▁enklaste	-12255
▁arkitektur	-12256
▁jämställdhet	-12257
hh	-12258
▁blomma	-12259
▁stiger	-12260
strar	-12261
▁Kall	-12262
byggt	-12263
▁Work	-12264
▁alt	-12265
OK	-12266
ipedia	-12267
▁köttet	-12268
otyp	-12269
▁tänd	-12270
klin	-12271
▁stötta	-12272
▁orka	-12273
▁Body	-12274
▁förse	-12275
sgrupp	-12276
vänt	-12277
▁finger	-12278
▁If	-12279
astående	-12280
▁expan	-12281
▁backen	-12282
▁kvällens	-12283
ansökan	-12284
▁pred	-12285
▁historier	-12286
▁Dec	-12287
splanen	-12288
ummor	-12289
▁känneteck	-12290
▁debatten	-12291
▁bakterier	-12292
▁pensionär	-12293
▁Soft	-12294
▁havs	-12295
▁kompletta	-12296
genom	-12297
▁permal	-12298
▁gigant	-12299
rosa	-12300
dukar	-12301
▁matchar	-12302
marker	-12303
▁Internation	-12304
FC	-12305
▁Pir	-12306
▁mestadels	-12307
▁64	-12308
▁Up	-12309
▁Andelen	-12310
▁mandat	-12311
▁berättelsen	-12312
esa	-12313
▁relevanta	-12314
▁nat	-12315
TH	-12316
▁citat	-12317
32	-12318
inspekt	-12319
▁Regeringen	-12320
mannen	-12321
▁....	-12322
▁tält	-12323
▁tålamod	-12324
▁kvällar	-12325
byn	-12326
eled	-12327
▁vetenskapliga	-12328
▁teman	-12329
▁högskole	-12330
▁badkar	-12331
▁Brunett	-12332
din	-12333
▁typiskt	-12334
▁morfar	-12335
▁Box	-12336
▁tiot	-12337
▁Spara	-12338
ammation	-12339
▁uppfyll	-12340
ory	-12341
▁missbruk	-12342
▁klarat	-12343
/12	-12344
▁lämpar	-12345
bai	-12346
partement	-12347
▁Industri	-12348
▁mog	-12349
ildos	-12350
▁fiska	-12351
▁flygplan	-12352
▁gälden	-12353
▁Huset	-12354
▁hanteras	-12355
liknande	-12356
phones	-12357
▁Skön	-12358
pulver	-12359
ikan	-12360
▁pant	-12361
▁grannar	-12362
iko	-12363
▁Reb	-12364
▁funktionen	-12365
▁Escortt	-12366
▁know	-12367
▁upphör	-12368
▁sortimentet	-12369
▁NY	-12370
eläs	-12371
ogn	-12372
organ	-12373
▁stel	-12374
▁pornografiska	-12375
illgäng	-12376
▁lantbruk	-12377
▁redigera	-12378
▁utställningar	-12379
▁anpassas	-12380
▁symboler	-12381
ups	-12382
▁Österrike	-12383
lagd	-12384
▁tork	-12385
akes	-12386
▁nedre	-12387
videos	-12388
organisation	-12389
▁Christer	-12390
▁upptr	-12391
▁mäter	-12392
eda	-12393
▁besvar	-12394
▁föreställningar	-12395
▁Fråga	-12396
ersättning	-12397
▁kold	-12398
▁världskriget	-12399
▁naz	-12400
▁skyldig	-12401
▁VR	-12402
▁insamling	-12403
▁registrerade	-12404
▁1900-	-12405
skrivna	-12406
▁taxi	-12407
▁extern	-12408
▁maximal	-12409
▁meta	-12410
▁Sj	-12411
drom	-12412
formulär	-12413
▁ordnar	-12414
▁fiskar	-12415
ängden	-12416
▁nyanser	-12417
spiration	-12418
▁träningspass	-12419
▁gel	-12420
▁lagring	-12421
▁seriöst	-12422
▁must	-12423
▁Tit	-12424
▁stabilitet	-12425
front	-12426
ifierad	-12427
▁roller	-12428
▁vaccin	-12429
kvist	-12430
▁Faktum	-12431
▁ägaren	-12432
OP	-12433
▁Ten	-12434
▁Fe	-12435
kasin	-12436
▁dokumenter	-12437
▁nationell	-12438
▁svårigheter	-12439
offer	-12440
block	-12441
vd	-12442
▁apel	-12443
▁blomster	-12444
"-	-12445
llertid	-12446
▁fläckar	-12447
▁spell	-12448
▁växthus	-12449
savgiften	-12450
flöde	-12451
▁Visby	-12452
-01	-12453
▁varsin	-12454
ikop	-12455
▁burk	-12456
▁Läk	-12457
▁förare	-12458
▁homo	-12459
▁menade	-12460
▁sanning	-12461
▁annonsen	-12462
jpg	-12463
▁Continue	-12464
bygd	-12465
▁skräp	-12466
▁AL	-12467
▁frid	-12468
svård	-12469
ful	-12470
▁öva	-12471
▁magnet	-12472
okalen	-12473
▁givande	-12474
▁matta	-12475
▁skadade	-12476
▁motivation	-12477
hätt	-12478
filer	-12479
trädande	-12480
▁armband	-12481
▁AM	-12482
▁Pär	-12483
▁väggarna	-12484
▁outfit	-12485
▁DVD	-12486
rien	-12487
säck	-12488
here	-12489
htt	-12490
▁blandas	-12491
▁vardera	-12492
▁Hd	-12493
ando	-12494
▁ultra	-12495
?”	-12496
illen	-12497
▁roligaste	-12498
▁tomat	-12499
utbildningar	-12500
▁genomfördes	-12501
▁väskan	-12502
▁ärligt	-12503
tade	-12504
ungar	-12505
vilket	-12506
▁styrels	-12507
▁Ven	-12508
▁Belgien	-12509
▁bolagets	-12510
▁variation	-12511
boy	-12512
▁överleva	-12513
lådan	-12514
anslut	-12515
▁hop	-12516
▁hälsar	-12517
▁ära	-12518
▁kontaktannonser	-12519
▁kvartalet	-12520
▁gator	-12521
▁ändrar	-12522
▁58	-12523
▁byggde	-12524
▁regnet	-12525
mis	-12526
▁ohälsa	-12527
estad	-12528
▁who	-12529
▁Elekt	-12530
▁rensa	-12531
svin	-12532
▁trå	-12533
görelse	-12534
▁ensamma	-12535
▁tillbaks	-12536
▁tele	-12537
▁Leif	-12538
▁Hentai	-12539
▁Wester	-12540
▁middagen	-12541
▁självständigt	-12542
▁Ku	-12543
▁pap	-12544
▁Palm	-12545
▁Lyssna	-12546
▁uppskatta	-12547
tävling	-12548
▁slappna	-12549
▁Blekinge	-12550
▁grunder	-12551
▁arbetsmarknad	-12552
▁soffa	-12553
▁kostnaderna	-12554
▁glatt	-12555
▁padd	-12556
▁lednings	-12557
date	-12558
▁grönsak	-12559
vo	-12560
Läs	-12561
▁2012.	-12562
▁blek	-12563
chefen	-12564
abri	-12565
▁tang	-12566
kondition	-12567
▁sinne	-12568
▁sååå	-12569
▁SJ	-12570
miären	-12571
▁bröder	-12572
ödda	-12573
▁passerar	-12574
6)	-12575
spapper	-12576
▁59	-12577
▁byrå	-12578
▁bull	-12579
täkt	-12580
▁Bot	-12581
▁omgång	-12582
▁monter	-12583
▁Risk	-12584
▁tallrik	-12585
sand	-12586
tage	-12587
▁Lesbisk	-12588
▁Skill	-12589
▁models	-12590
pengar	-12591
▁01	-12592
▁bilda	-12593
▁drabbade	-12594
öjda	-12595
▁broder	-12596
▁Buss	-12597
▁lay	-12598
▁que	-12599
▁udda	-12600
årsåldern	-12601
▁:-	-12602
▁fragor	-12603
▁säsonger	-12604
brid	-12605
konsol	-12606
öra	-12607
▁användaren	-12608
TER	-12609
▁fransk	-12610
▁ventilation	-12611
mord	-12612
ule	-12613
▁Afrika	-12614
▁dar	-12615
▁retro	-12616
▁tillåta	-12617
▁tillag	-12618
fam	-12619
▁komplettera	-12620
▁tredj	-12621
▁klassiskt	-12622
lampor	-12623
▁utöka	-12624
-08	-12625
naler	-12626
▁Cle	-12627
▁sne	-12628
▁pj	-12629
▁regi	-12630
▁huvudsakligen	-12631
▁Ange	-12632
butiken	-12633
▁41	-12634
ätet	-12635
klund	-12636
▁2003	-12637
dis	-12638
▁kladd	-12639
▁North	-12640
▁gissa	-12641
▁arbetsplatser	-12642
▁ke	-12643
▁ämnes	-12644
▁bostaden	-12645
▁latex	-12646
▁möbel	-12647
mellertid	-12648
▁absoluta	-12649
▁Därmed	-12650
▁övning	-12651
▁cat	-12652
lagda	-12653
arrang	-12654
▁berättat	-12655
▁definition	-12656
▁översättning	-12657
▁kunskapen	-12658
▁blandat	-12659
2-	-12660
byrån	-12661
iatisk	-12662
▁Bokmärk	-12663
eth	-12664
▁mur	-12665
▁Klipp	-12666
▁motorn	-12667
▁begreppet	-12668
▁Restaurang	-12669
▁snack	-12670
▁intellig	-12671
▁överklag	-12672
▁Bröst	-12673
Var	-12674
▁Ungdom	-12675
märke	-12676
▁forskar	-12677
▁diameter	-12678
äljare	-12679
ception	-12680
▁bildas	-12681
▁Cec	-12682
▁rumpa	-12683
▁bränn	-12684
konstru	-12685
▁hästarna	-12686
ville	-12687
försäljning	-12688
▁varmare	-12689
▁kondition	-12690
▁Häst	-12691
▁Lokal	-12692
glasögon	-12693
----	-12694
▁friluft	-12695
▁kropps	-12696
▁vägarna	-12697
VM	-12698
fylld	-12699
ologin	-12700
färger	-12701
▁Show	-12702
▁Borlänge	-12703
▁Mult	-12704
bonus	-12705
▁hön	-12706
▁trettio	-12707
batten	-12708
▁Tiden	-12709
▁bestämm	-12710
▁kompakt	-12711
ilen	-12712
▁HR	-12713
▁Bert	-12714
▁halvlek	-12715
▁efterläng	-12716
▁batter	-12717
▁terrass	-12718
▁sexuellt	-12719
▁övernatt	-12720
▁tänderna	-12721
åla	-12722
blr	-12723
▁förvis	-12724
ällor	-12725
bers	-12726
▁förekommande	-12727
▁Dubb	-12728
skortt	-12729
▁ggr	-12730
▁onlin	-12731
▁uppre	-12732
uper	-12733
▁vig	-12734
kvent	-12735
▁sus	-12736
▁onani	-12737
verkning	-12738
penning	-12739
▁Anne	-12740
ection	-12741
▁WordPress	-12742
▁skidor	-12743
▁artist	-12744
▁rabattkoder	-12745
chester	-12746
kastning	-12747
änks	-12748
äckt	-12749
▁utformning	-12750
ängt	-12751
▁now	-12752
▁handled	-12753
▁löpning	-12754
▁kvällarna	-12755
▁sommarlov	-12756
▁Tis	-12757
▁befolkning	-12758
▁företagande	-12759
sköld	-12760
▁monteras	-12761
▁Tele	-12762
annons	-12763
▁maken	-12764
▁sammant	-12765
him	-12766
ways	-12767
pend	-12768
▁domänen	-12769
▁undersökningen	-12770
linje	-12771
ults	-12772
bottens	-12773
etisk	-12774
▁klocka	-12775
▁experim	-12776
ibland	-12777
Re	-12778
▁länderna	-12779
öln	-12780
ashion	-12781
▁Koka	-12782
▁myt	-12783
kö	-12784
ede	-12785
▁Tran	-12786
▁borg	-12787
▁Op	-12788
ulen	-12789
tjejer	-12790
speg	-12791
▁jud	-12792
värre	-12793
▁jazz	-12794
▁trag	-12795
▁cykeln	-12796
▁förhandling	-12797
▁mott	-12798
elin	-12799
▁lantag	-12800
▁Älv	-12801
▁Kristina	-12802
▁kroppens	-12803
▁mörkret	-12804
▁turister	-12805
mats	-12806
▁Der	-12807
▁hotellrum	-12808
▁AP	-12809
enterna	-12810
▁verksamma	-12811
▁univers	-12812
arp	-12813
▁MEN	-12814
ädare	-12815
▁horn	-12816
akim	-12817
▁festen	-12818
▁^^	-12819
▁populäraste	-12820
▁poolen	-12821
län	-12822
mästare	-12823
▁bemötande	-12824
ollen	-12825
▁Runt	-12826
väska	-12827
▁Nick	-12828
▁armar	-12829
▁optimal	-12830
▁profiler	-12831
▁slicka	-12832
ssystemet	-12833
uen	-12834
▁utrikes	-12835
vagnar	-12836
▁4:	-12837
▁potentiella	-12838
opol	-12839
▁grått	-12840
▁Vackra	-12841
▁toppar	-12842
▁samhälls	-12843
kopplad	-12844
▁Richard	-12845
biljetter	-12846
casino	-12847
TS	-12848
▁målen	-12849
dater	-12850
ävande	-12851
▁tillverkat	-12852
▁Rem	-12853
▁Oftast	-12854
▁Ref	-12855
▁Ox	-12856
▁funktionsh	-12857
▁lagstiftning	-12858
▁Rev	-12859
▁klasser	-12860
▁orkade	-12861
▁games	-12862
▁Olika	-12863
▁drick	-12864
▁scener	-12865
▁deg	-12866
▁brinnande	-12867
▁orsaker	-12868
▁got	-12869
listen	-12870
helst	-12871
▁Dags	-12872
sluter	-12873
såt	-12874
▁exakta	-12875
havet	-12876
väder	-12877
▁avslöjar	-12878
▁ISO	-12879
▁minsann	-12880
▁badoo	-12881
▁krävande	-12882
▁sommarens	-12883
sgr	-12884
▁önskade	-12885
ро	-12886
verkningar	-12887
▁home	-12888
▁önskat	-12889
slösningar	-12890
▁fyllda	-12891
utvecklare	-12892
▁sträcka	-12893
cal	-12894
▁Privat	-12895
skivor	-12896
▁Java	-12897
▁sektor	-12898
fari	-12899
▁Bed	-12900
▁fax	-12901
▁Klart	-12902
▁advokat	-12903
▁Band	-12904
▁Sidan	-12905
▁resmål	-12906
stig	-12907
▁respons	-12908
umb	-12909
ites	-12910
sträning	-12911
▁avsk	-12912
▁manliga	-12913
dans	-12914
▁låda	-12915
▁Dist	-12916
▁kryp	-12917
snämnden	-12918
▁diskrimin	-12919
▁motverka	-12920
▁möbl	-12921
▁märktes	-12922
▁hemlighet	-12923
▁Karlskrona	-12924
uth	-12925
▁diplom	-12926
▁prognos	-12927
lly	-12928
▁inläggen	-12929
▁5000	-12930
▁HP	-12931
album	-12932
▁Slott	-12933
figur	-12934
▁Småland	-12935
▁integration	-12936
▁bedöma	-12937
UD	-12938
▁rykte	-12939
vetet	-12940
dubb	-12941
▁löper	-12942
▁oklart	-12943
▁komment	-12944
▁otill	-12945
▁killarna	-12946
perfekt	-12947
▁goog	-12948
▁pussel	-12949
▁ele	-12950
▁Bol	-12951
▁orange	-12952
▁liggande	-12953
▁sä	-12954
▁vanligen	-12955
▁Län	-12956
▁glidmedel	-12957
▁industrin	-12958
▁afrik	-12959
▁ish	-12960
▁sund	-12961
▁ledar	-12962
▁instruktioner	-12963
ippa	-12964
▁framgångsrik	-12965
▁Sign	-12966
▁Kungs	-12967
matta	-12968
orier	-12969
▁50%	-12970
lleborg	-12971
▁överdr	-12972
▁plockade	-12973
▁antib	-12974
stolar	-12975
▁laddas	-12976
?.	-12977
valler	-12978
umpen	-12979
runa	-12980
usion	-12981
ägge	-12982
promenad	-12983
▁promenader	-12984
stark	-12985
kortet	-12986
▁hihi	-12987
▁asiatiska	-12988
▁Nederländerna	-12989
▁signatur	-12990
?"	-12991
▁flexibilitet	-12992
stens	-12993
▁Nacka	-12994
▁parter	-12995
▁karaktärer	-12996
▁Båt	-12997
▁koldioxid	-12998
▁cha	-12999
▁feta	-13000
▁isen	-13001
▁Registrera	-13002
▁bredare	-13003
inv	-13004
▁stängt	-13005
oft	-13006
▁lova	-13007
▁rutan	-13008
▁vänn	-13009
ple	-13010
▁Mix	-13011
ublished	-13012
▁engelsk	-13013
▁sovrummet	-13014
brist	-13015
▁målade	-13016
▁7,	-13017
▁beman	-13018
▁tillsätt	-13019
akers	-13020
▁fly	-13021
▁ivr	-13022
▁Sandra	-13023
▁Knullar	-13024
▁skorna	-13025
kvar	-13026
linespel	-13027
zo	-13028
girl	-13029
entre	-13030
▁stolar	-13031
▁Billiga	-13032
▁naglar	-13033
▁anställa	-13034
▁permalänken	-13035
▁uppstå	-13036
ortiment	-13037
▁fortsatta	-13038
▁underteck	-13039
▁aktiebolag	-13040
▁konkret	-13041
middagen	-13042
ür	-13043
▁minskade	-13044
ssnitt	-13045
▁mammor	-13046
sbel	-13047
▁magiska	-13048
kenberg	-13049
▁inatt	-13050
▁Akadem	-13051
▁Miljöp	-13052
trol	-13053
▁nyfikenhet	-13054
▁huruvida	-13055
▁UV	-13056
▁TA	-13057
ätten	-13058
istrat	-13059
▁interna	-13060
▁förflytt	-13061
behov	-13062
▁prop	-13063
▁startades	-13064
▁labor	-13065
▁Book	-13066
▁servering	-13067
▁diskuteras	-13068
47	-13069
/3	-13070
glish	-13071
▁oväntat	-13072
▁tyder	-13073
▁center	-13074
▁snacka	-13075
▁Hit	-13076
▁tend	-13077
▁9.	-13078
▁casinot	-13079
▁How	-13080
▁kopplade	-13081
detaljer	-13082
ifer	-13083
▁call	-13084
▁Halland	-13085
▁reading	-13086
visningar	-13087
nöjd	-13088
öjt	-13089
▁kraftfull	-13090
forum	-13091
splaner	-13092
bror	-13093
▁moral	-13094
▁Själva	-13095
-06	-13096
portera	-13097
ria	-13098
vallen	-13099
▁glömde	-13100
▁applikationer	-13101
yo	-13102
▁allvarlig	-13103
▁Arm	-13104
▁hands	-13105
▁whisk	-13106
zen	-13107
äfta	-13108
▁Träning	-13109
▁främmande	-13110
▁oral	-13111
0,	-13112
▁Street	-13113
8)	-13114
▁Pu	-13115
▁Gamm	-13116
ekend	-13117
▁klänningar	-13118
kalas	-13119
idning	-13120
▁Mu	-13121
▁väcka	-13122
▁överväga	-13123
▁inspireras	-13124
dräkt	-13125
ställe	-13126
▁onan	-13127
▁Grav	-13128
▁mobb	-13129
▁vägledning	-13130
hlin	-13131
▁numret	-13132
▁pur	-13133
▁Of	-13134
yrer	-13135
▁konton	-13136
▁dimension	-13137
▁Filip	-13138
▁Rick	-13139
▁individuell	-13140
▁höstas	-13141
▁Atl	-13142
▁uppenbart	-13143
ati	-13144
▁Wars	-13145
▁52	-13146
guld	-13147
▁leveranser	-13148
▁mom	-13149
▁GRAT	-13150
▁daglig	-13151
▁marknadens	-13152
▁beund	-13153
▁navig	-13154
ostal	-13155
▁facil	-13156
▁Lördag	-13157
▁silikon	-13158
▁orgasm	-13159
Med	-13160
▁tråkig	-13161
▁egenskap	-13162
▁fortsättningen	-13163
▁tob	-13164
▁Brasil	-13165
▁life	-13166
universitet	-13167
▁uppdaterade	-13168
▁spekul	-13169
ores	-13170
▁sväl	-13171
▁stjäl	-13172
ingel	-13173
▁allas	-13174
cos	-13175
▁platserna	-13176
rer	-13177
▁Köpte	-13178
inerna	-13179
redovis	-13180
▁betyda	-13181
▁långsiktiga	-13182
scen	-13183
smat	-13184
▁dumt	-13185
▁Innehåller	-13186
▁skyddas	-13187
GA	-13188
stur	-13189
???	-13190
▁strål	-13191
sperioden	-13192
sförvalt	-13193
vitamin	-13194
▁tänkbara	-13195
▁rötter	-13196
middag	-13197
dahl	-13198
oe	-13199
▁bråk	-13200
▁Åker	-13201
▁livets	-13202
▁Nätet	-13203
inrikt	-13204
▁reaktion	-13205
▁offert	-13206
▁feedback	-13207
▁tänkas	-13208
▁uppföljning	-13209
▁Hjärt	-13210
TC	-13211
gal	-13212
▁Sid	-13213
stituerade	-13214
▁net	-13215
Un	-13216
▁väcker	-13217
ILL	-13218
pedagog	-13219
▁agen	-13220
▁koncern	-13221
▁69	-13222
▁borr	-13223
▁engagera	-13224
▁uppskattat	-13225
▁färgglad	-13226
▁hard	-13227
bom	-13228
▁slutändan	-13229
▁näsan	-13230
▁SC	-13231
▁tydligare	-13232
svillkor	-13233
▁rörande	-13234
▁Avbryt	-13235
▁SU	-13236
ställs	-13237
▁surfa	-13238
acken	-13239
▁Ever	-13240
éns	-13241
▁cirkul	-13242
▁handikapp	-13243
-14	-13244
▁nul	-13245
▁Trafikverket	-13246
▁tryckt	-13247
ordförande	-13248
▁hygien	-13249
▁omfattas	-13250
▁skivan	-13251
▁blandar	-13252
▁tabellen	-13253
69	-13254
kak	-13255
ssor	-13256
▁trö	-13257
▁2020	-13258
▁krön	-13259
sbolaget	-13260
▁tråkiga	-13261
▁Opt	-13262
osten	-13263
▁Gold	-13264
▁spegel	-13265
▁inbrott	-13266
tillskott	-13267
▁bidragit	-13268
stenar	-13269
baserat	-13270
ornet	-13271
sberg	-13272
▁Salt	-13273
ört	-13274
lager	-13275
▁sparas	-13276
▁upprör	-13277
adel	-13278
▁synlig	-13279
▁Amerik	-13280
ädden	-13281
iana	-13282
▁sexställningar	-13283
▁game	-13284
sskiftet	-13285
▁Dröm	-13286
▁mammas	-13287
▁и	-13288
ccess	-13289
▁nett	-13290
▁MP	-13291
kål	-13292
▁analsex	-13293
▁Skolan	-13294
nära	-13295
▁Asien	-13296
kron	-13297
▁Oper	-13298
▁some	-13299
▁fula	-13300
▁landsbygden	-13301
▁höstens	-13302
▁mäklare	-13303
3-	-13304
▁monet	-13305
▁Por	-13306
▁ultimata	-13307
▁Johannes	-13308
▁350	-13309
▁låtarna	-13310
iteå	-13311
▁kommersiella	-13312
▁luktar	-13313
emi	-13314
fiske	-13315
▁Seb	-13316
▁auktoriserad	-13317
▁städning	-13318
▁tabletter	-13319
▁Europeiska	-13320
ulin	-13321
▁drabbats	-13322
▁räntan	-13323
▁planeras	-13324
▁skött	-13325
▁Jonsson	-13326
rupp	-13327
▁grädd	-13328
▁metoden	-13329
▁vindkraft	-13330
etty	-13331
▁avsedd	-13332
▁spelverksamhet	-13333
▁Ask	-13334
redd	-13335
▁spänn	-13336
▁baserade	-13337
▁spelades	-13338
laska	-13339
▁välkomst	-13340
önen	-13341
▁alltmer	-13342
intresserade	-13343
▁okända	-13344
▁väskor	-13345
▁Kredit	-13346
▁schema	-13347
▁eskilstuna	-13348
elever	-13349
▁Senast	-13350
atien	-13351
▁gla	-13352
▁lun	-13353
▁jun	-13354
ierar	-13355
▁Råd	-13356
▁tillslut	-13357
gan	-13358
▁utby	-13359
▁förpackning	-13360
ams	-13361
▁Cra	-13362
▁begränsat	-13363
▁Rabatt	-13364
ente	-13365
▁blöt	-13366
▁logistik	-13367
okie	-13368
▁byggd	-13369
makt	-13370
▁Please	-13371
▁återfukt	-13372
▁avslappnad	-13373
▁5-	-13374
▁maskerad	-13375
bre	-13376
trä	-13377
aller	-13378
chat	-13379
▁plockar	-13380
▁händelsen	-13381
▁vinkel	-13382
▁Rekommender	-13383
▁anläggningen	-13384
möjligheter	-13385
häls	-13386
▁klubbens	-13387
kostnader	-13388
ektor	-13389
leksak	-13390
▁döden	-13391
ättning	-13392
▁skrämmande	-13393
▁intensivt	-13394
ania	-13395
kapp	-13396
▁bollar	-13397
VS	-13398
fört	-13399
▁inleds	-13400
▁utmana	-13401
▁häftigt	-13402
eställning	-13403
▁dokumentation	-13404
▁förnu	-13405
▁hyd	-13406
▁lysande	-13407
▁PDF	-13408
kasinon	-13409
▁älg	-13410
▁CC	-13411
▁Him	-13412
▁familjemed	-13413
▁lana	-13414
EJ	-13415
ology	-13416
▁sjukdomen	-13417
▁rust	-13418
▁begära	-13419
▁mull	-13420
▁engagerad	-13421
▁Swe	-13422
wards	-13423
▁’	-13424
▁framsteg	-13425
jerna	-13426
gränsa	-13427
▁hjärtan	-13428
quist	-13429
▁kemikalier	-13430
banor	-13431
▁kopplas	-13432
▁Und	-13433
mässan	-13434
▁Givet	-13435
▁torsdags	-13436
▁Blu	-13437
▁betraktas	-13438
▁förbättrad	-13439
▁Hockey	-13440
våningen	-13441
▁vaken	-13442
vita	-13443
emal	-13444
▁Linné	-13445
▁Nike	-13446
vning	-13447
▁begäran	-13448
▁orten	-13449
smatch	-13450
sförmåga	-13451
smässigt	-13452
sbas	-13453
▁genomsnittliga	-13454
▁Liber	-13455
▁vänligen	-13456
jk	-13457
junkt	-13458
upen	-13459
äldrar	-13460
spolicy	-13461
▁kastrull	-13462
sträd	-13463
▁månaders	-13464
bis	-13465
ould	-13466
▁fisken	-13467
lorna	-13468
▁conta	-13469
tagande	-13470
▁360	-13471
▁terräng	-13472
▁tenderar	-13473
slä	-13474
▁nackdelar	-13475
buss	-13476
▁Frukost	-13477
▁utformad	-13478
▁beloppet	-13479
count	-13480
ova	-13481
▁entusia	-13482
▁itu	-13483
▁Beroende	-13484
▁alternativa	-13485
ingenjör	-13486
▁näringslivet	-13487
▁Lab	-13488
yckel	-13489
▁Storlek	-13490
▁knappar	-13491
▁vanligare	-13492
hyll	-13493
▁teckna	-13494
▁urin	-13495
▁Gal	-13496
förslag	-13497
versionen	-13498
▁nationellt	-13499
▁uppskattade	-13500
44	-13501
asyster	-13502
ji	-13503
▁hyfsat	-13504
grad	-13505
reen	-13506
kus	-13507
▁administration	-13508
▁string	-13509
iseringen	-13510
▁Upptäck	-13511
ribu	-13512
edal	-13513
▁kopplat	-13514
IP	-13515
▁repet	-13516
gare	-13517
varan	-13518
Sp	-13519
▁beton	-13520
everket	-13521
▁Katt	-13522
▁firma	-13523
▁ve	-13524
linjen	-13525
fåg	-13526
oke	-13527
hurt	-13528
▁exklusiv	-13529
▁öppnat	-13530
▁kolon	-13531
▁tjänstem	-13532
▁Ama	-13533
▁Baby	-13534
▁säkrare	-13535
frihet	-13536
▁skogs	-13537
▁avveck	-13538
▁57	-13539
▁Kalle	-13540
▁värdefulla	-13541
▁Underkläder	-13542
▁verksamhets	-13543
ject	-13544
▁tavlor	-13545
▁borger	-13546
▁introduktion	-13547
▁brom	-13548
▁FC	-13549
▁gruv	-13550
▁Thor	-13551
▁produceras	-13552
▁day	-13553
▁aggress	-13554
▁porslin	-13555
▁smartphones	-13556
hub	-13557
▁granne	-13558
▁förfall	-13559
▁uppgiften	-13560
▁blåser	-13561
▁Säl	-13562
ionde	-13563
utvecklingen	-13564
▁varu	-13565
▁IV	-13566
▁utvärdera	-13567
▁sexuell	-13568
▁villiga	-13569
▁frys	-13570
▁skadad	-13571
▁sjunker	-13572
▁studerar	-13573
▁balkongen	-13574
▁Latest	-13575
appar	-13576
▁Mall	-13577
▁Light	-13578
ssen	-13579
▁konserter	-13580
▁Läg	-13581
▁funka	-13582
▁historiken	-13583
▁Almed	-13584
▁undra	-13585
▁Utbildning	-13586
borgs	-13587
▁kylskåp	-13588
▁blandade	-13589
stads	-13590
▁instrukt	-13591
vecka	-13592
▁njöt	-13593
▁Ganska	-13594
▁Sha	-13595
▁fittor	-13596
fattning	-13597
▁maskinen	-13598
▁politiken	-13599
VC	-13600
seri	-13601
▁Butik	-13602
regl	-13603
upplevelsen	-13604
ized	-13605
▁Spelet	-13606
vagnen	-13607
örs	-13608
▁tanter	-13609
igenom	-13610
▁Jur	-13611
väv	-13612
▁140	-13613
visningen	-13614
▁Hammarby	-13615
▁övergrepp	-13616
▁symtom	-13617
▁GB	-13618
▁rytt	-13619
▁cirkel	-13620
▁upplaga	-13621
▁enheten	-13622
kil	-13623
▁Östra	-13624
▁foss	-13625
▁Call	-13626
▁ärende	-13627
▁nyfikna	-13628
sbehandling	-13629
▁redovisning	-13630
▁bun	-13631
blar	-13632
▁Extre	-13633
rens	-13634
ingsliv	-13635
▁säkerheten	-13636
uka	-13637
▁fÃ	-13638
▁size	-13639
version	-13640
▁celler	-13641
▁Utbildningen	-13642
ship	-13643
▁förbättringar	-13644
▁Personer	-13645
▁öd	-13646
▁Carlsson	-13647
plet	-13648
▁want	-13649
▁smala	-13650
▁singles	-13651
▁MC	-13652
pla	-13653
bjudande	-13654
▁find	-13655
usentals	-13656
▁bh	-13657
dell	-13658
▁Vart	-13659
▁kontrast	-13660
▁noveller	-13661
▁utspelar	-13662
sbyggnad	-13663
▁Stig	-13664
▁Tantra	-13665
▁läkaren	-13666
▁byggda	-13667
▁målvakt	-13668
▁ungdoms	-13669
▁Hill	-13670
▁SF	-13671
gjorde	-13672
ställen	-13673
▁AR	-13674
teckning	-13675
▁bespar	-13676
▁dun	-13677
▁tekniskt	-13678
▁självförtroende	-13679
▁Blogg	-13680
▁kollektion	-13681
▁halvår	-13682
▁ran	-13683
▁xnxx	-13684
▁Olle	-13685
▁hustru	-13686
▁handlat	-13687
▁välbef	-13688
▁munt	-13689
▁Joakim	-13690
fonden	-13691
▁ankomst	-13692
▁transaktion	-13693
▁tagen	-13694
▁typiska	-13695
halv	-13696
▁Stan	-13697
▁nagel	-13698
▁samlag	-13699
▁konvention	-13700
postadressen	-13701
ömning	-13702
▁Kong	-13703
▁rymd	-13704
fönster	-13705
▁skrevs	-13706
▁verklig	-13707
först	-13708
▁utfört	-13709
▁redov	-13710
▁kryddor	-13711
▁otrolig	-13712
▁ihjäl	-13713
frisk	-13714
▁175	-13715
pps	-13716
▁Lina	-13717
EX	-13718
▁hol	-13719
▁monster	-13720
▁vintage	-13721
▁enkät	-13722
▁pics	-13723
examen	-13724
▁granskning	-13725
▁Moderaterna	-13726
▁avslutades	-13727
▁magn	-13728
▁Kille	-13729
vind	-13730
▁påse	-13731
▁talang	-13732
onsult	-13733
▁vagnen	-13734
ards	-13735
▁Pettersson	-13736
▁hyresgäster	-13737
▁flygbolag	-13738
▁återfinns	-13739
▁TripAd	-13740
▁förekom	-13741
▁Ford	-13742
hållande	-13743
Tube	-13744
▁attraktiva	-13745
nick	-13746
sfor	-13747
▁solid	-13748
▁lj	-13749
▁brukade	-13750
▁lesbiska	-13751
▁utredningen	-13752
▁Fjäll	-13753
▁vägrar	-13754
▁genomföras	-13755
cipl	-13756
vapen	-13757
▁try	-13758
▁uppenbarligen	-13759
▁värmer	-13760
▁medföljer	-13761
cher	-13762
▁stöt	-13763
▁prinse	-13764
ripa	-13765
▁avn	-13766
▁nyheterna	-13767
▁Kön	-13768
kik	-13769
▁5:	-13770
▁TR	-13771
tåg	-13772
▁2010.	-13773
▁FR	-13774
▁päls	-13775
▁vätska	-13776
▁emellertid	-13777
eds	-13778
▁Ash	-13779
▁cigar	-13780
▁Camilla	-13781
högskolan	-13782
▁museet	-13783
▁tyger	-13784
▁räknat	-13785
drande	-13786
nämnden	-13787
ко	-13788
bbe	-13789
▁Okej	-13790
sbär	-13791
▁kostade	-13792
▁category	-13793
▁producent	-13794
deg	-13795
▁buk	-13796
▁olivolja	-13797
▁duschen	-13798
alth	-13799
▁nacken	-13800
▁nice	-13801
▁förbr	-13802
pning	-13803
▁160	-13804
▁Flickor	-13805
dekor	-13806
▁older	-13807
▁skilda	-13808
▁Länsstyrelsen	-13809
▁sekret	-13810
▁Institutionen	-13811
▁likadant	-13812
▁vitamin	-13813
▁makten	-13814
▁etablerade	-13815
nämnda	-13816
▁Mask	-13817
▁2018,	-13818
via	-13819
jterna	-13820
stro	-13821
▁fräscht	-13822
kare	-13823
▁Expressen	-13824
▁reportage	-13825
▁veterinär	-13826
▁kundservice	-13827
▁fliken	-13828
▁tredjedel	-13829
▁//	-13830
▁Lang	-13831
kke	-13832
▁export	-13833
▁samlingar	-13834
▁10,	-13835
▁ovanstående	-13836
▁klack	-13837
uma	-13838
▁bostads	-13839
tak	-13840
▁Götaland	-13841
▁Försök	-13842
▁diesel	-13843
modeller	-13844
givet	-13845
▁kliva	-13846
SP	-13847
▁kylen	-13848
▁Pengar	-13849
▁NU	-13850
▁ond	-13851
▁Glad	-13852
▁intervall	-13853
▁agerar	-13854
▁fritids	-13855
▁förtjust	-13856
▁Fet	-13857
▁flyt	-13858
▁reste	-13859
▁Mari	-13860
▁huv	-13861
▁2011.	-13862
▁inträffade	-13863
▁Gala	-13864
▁hantverkare	-13865
▁nivån	-13866
▁diet	-13867
ifikat	-13868
banken	-13869
rollen	-13870
Ex	-13871
restaur	-13872
▁traditionellt	-13873
smedels	-13874
trafiken	-13875
▁kortsikt	-13876
▁Undrar	-13877
▁råkade	-13878
sig	-13879
▁gummi	-13880
varing	-13881
ämd	-13882
värdig	-13883
▁Cecilia	-13884
▁studenten	-13885
▁asf	-13886
▁delat	-13887
▁laser	-13888
▁Otro	-13889
hättan	-13890
stjärna	-13891
eställningar	-13892
stest	-13893
▁färdigheter	-13894
▁explos	-13895
▁ovanpå	-13896
▁detaljerna	-13897
▁framgångsrikt	-13898
▁sprut	-13899
▁nyttig	-13900
▁depression	-13901
▁Rå	-13902
▁rummen	-13903
▁paret	-13904
▁skrattar	-13905
▁skattem	-13906
▁födda	-13907
▁inträffar	-13908
▁skytt	-13909
▁partiled	-13910
▁Miljöpart	-13911
dren	-13912
ofta	-13913
▁dopp	-13914
▁Borde	-13915
agd	-13916
stadiet	-13917
bullar	-13918
▁schemat	-13919
▁minnet	-13920
▁utbilda	-13921
▁TripAdvisor	-13922
▁fusk	-13923
isol	-13924
▁anvis	-13925
▁Gård	-13926
▁mineral	-13927
▁stämningen	-13928
▁Well	-13929
▁folks	-13930
ih	-13931
77	-13932
▁Hug	-13933
▁ställningar	-13934
▁släp	-13935
max	-13936
▁långsam	-13937
▁Kroatien	-13938
▁Programmet	-13939
KER	-13940
▁psykiat	-13941
▁dragkedja	-13942
▁muslim	-13943
▁Personalen	-13944
förhållanden	-13945
▁symptom	-13946
enskaps	-13947
▁Lju	-13948
▁Skr	-13949
▁MIL	-13950
ssjuk	-13951
▁enastående	-13952
▁instruktion	-13953
ingens	-13954
▁Fokus	-13955
skvalitet	-13956
▁Medicin	-13957
▁progress	-13958
].	-13959
grå	-13960
fix	-13961
▁bjuds	-13962
▁Varmt	-13963
▁åklag	-13964
udden	-13965
▁casinospel	-13966
▁studio	-13967
▁kvinnors	-13968
▁Cy	-13969
▁HA	-13970
▁Tal	-13971
▁only	-13972
smakten	-13973
▁lanserar	-13974
▁kirur	-13975
▁Luc	-13976
▁Lasse	-13977
ulan	-13978
▁tiderna	-13979
▁ensamstående	-13980
html	-13981
▁Jour	-13982
▁arbetsplatsen	-13983
färgade	-13984
komplic	-13985
▁fingrar	-13986
▁Ec	-13987
▁förändrats	-13988
ør	-13989
▁Strax	-13990
sledande	-13991
▁Jens	-13992
▁Christina	-13993
▁bifog	-13994
▁refinansiering	-13995
▁höjer	-13996
▁bruna	-13997
parker	-13998
plikt	-13999
▁besöket	-14000
▁registrerar	-14001
luft	-14002
▁kritisk	-14003
▁inbyggd	-14004
▁88	-14005
▁Cel	-14006
▁Birgitta	-14007
▁Mis	-14008
firma	-14009
▁sling	-14010
▁inspekt	-14011
▁lamm	-14012
▁inteckning	-14013
omål	-14014
▁Hår	-14015
**	-14016
▁Forsk	-14017
▁Jansson	-14018
ÄL	-14019
▁Babe	-14020
glädje	-14021
nation	-14022
▁Office	-14023
▁lampa	-14024
▁Game	-14025
▁placerad	-14026
alta	-14027
▁gyllen	-14028
▁genomgång	-14029
Porn	-14030
▁tomater	-14031
nr	-14032
▁klaga	-14033
▁Annons	-14034
garanti	-14035
▁hå	-14036
cykloped	-14037
▁after	-14038
▁nyanl	-14039
▁Hollywood	-14040
itness	-14041
▁Gull	-14042
▁cer	-14043
värder	-14044
▁skrivs	-14045
▁Katarina	-14046
▁fascinerande	-14047
likation	-14048
▁valdes	-14049
▁reagerar	-14050
▁piller	-14051
▁rektor	-14052
▁landslag	-14053
▁Mys	-14054
▁finansiera	-14055
▁verksam	-14056
▁marknader	-14057
etik	-14058
II	-14059
▁die	-14060
.5	-14061
ökning	-14062
▁Ursprungligen	-14063
▁Vinter	-14064
▁kombineras	-14065
▁generationer	-14066
▁Lämna	-14067
▁passet	-14068
▁fingrarna	-14069
▁öde	-14070
▁beteck	-14071
▁Vatt	-14072
▁rätteg	-14073
festivalen	-14074
fack	-14075
perioden	-14076
ives	-14077
▁mörker	-14078
▁Ill	-14079
▁Dans	-14080
▁vårat	-14081
skontroll	-14082
▁Häss	-14083
▁mög	-14084
storlek	-14085
▁Anmälan	-14086
▁svalna	-14087
▁3000	-14088
▁sås	-14089
▁Närma	-14090
staller	-14091
filmen	-14092
sbacka	-14093
edi	-14094
▁Trav	-14095
circa	-14096
flick	-14097
▁sånger	-14098
▁bekräftar	-14099
åsen	-14100
▁uppföd	-14101
▁precision	-14102
ummet	-14103
▁frö	-14104
▁Arab	-14105
delarna	-14106
▁drycker	-14107
insen	-14108
oven	-14109
▁unge	-14110
▁låne	-14111
▁stunden	-14112
skjut	-14113
▁hemmag	-14114
▁indexering	-14115
ityd	-14116
▁rimligt	-14117
▁framgångar	-14118
▁Bell	-14119
ledaren	-14120
▁flexibla	-14121
▁Porrfilmer	-14122
▁Också	-14123
mitt	-14124
▁oön	-14125
Jo	-14126
▁Jean	-14127
tel	-14128
kompis	-14129
▁styck	-14130
▁långivare	-14131
ydde	-14132
BT	-14133
▁annanstans	-14134
▁apelsin	-14135
▁Mega	-14136
▁thail	-14137
▁2019.	-14138
▁etn	-14139
▁dalarna	-14140
▁Tall	-14141
▁halvtimme	-14142
▁resulterade	-14143
▁tillväg	-14144
▁knäpp	-14145
aktig	-14146
▁möttes	-14147
▁130	-14148
▁satsningar	-14149
▁utmaningen	-14150
spot	-14151
▁ers	-14152
▁stränder	-14153
mys	-14154
liver	-14155
▁Åbo	-14156
▁Maja	-14157
▁tvung	-14158
inciper	-14159
ope	-14160
rine	-14161
▁skägg	-14162
stre	-14163
rian	-14164
sfest	-14165
▁polyester	-14166
▁senior	-14167
▁nämnda	-14168
▁postat	-14169
▁Marknad	-14170
▁säkerligen	-14171
körning	-14172
house	-14173
▁Wal	-14174
▁uppdel	-14175
▁AT	-14176
sparken	-14177
▁behövas	-14178
▁båg	-14179
▁jämnt	-14180
▁segern	-14181
ungit	-14182
▁Vita	-14183
starka	-14184
▁kommenterar	-14185
ägenheter	-14186
▁databas	-14187
kampan	-14188
▁fattiga	-14189
▁Världens	-14190
▁hittades	-14191
▁debiter	-14192
▁110	-14193
▁Margar	-14194
▁cas	-14195
▁Uppdat	-14196
▁Förhoppningsvis	-14197
korg	-14198
▁saknade	-14199
▁Synd	-14200
filter	-14201
▁häromdagen	-14202
▁letade	-14203
hålls	-14204
forskning	-14205
▁Givetvis	-14206
▁chock	-14207
▁lärarexamen	-14208
▁kore	-14209
▁Driv	-14210
▁Royal	-14211
yget	-14212
redningen	-14213
▁spis	-14214
entering	-14215
▁Oh	-14216
▁Fair	-14217
▁meddelade	-14218
▁föreställa	-14219
▁Kaj	-14220
▁galopp	-14221
▁stryk	-14222
stein	-14223
▁uppna	-14224
▁lagras	-14225
anmäl	-14226
▁Mini	-14227
▁hungrig	-14228
▁utrustade	-14229
▁bir	-14230
industri	-14231
▁konstiga	-14232
▁First	-14233
användning	-14234
▁pend	-14235
spress	-14236
▁Student	-14237
▁begå	-14238
▁flyttas	-14239
▁reparation	-14240
▁GT	-14241
▁CO	-14242
ginal	-14243
lust	-14244
▁sperma	-14245
▁behörighet	-14246
dap	-14247
raph	-14248
▁ryck	-14249
▁träng	-14250
ekväm	-14251
room	-14252
▁fotografier	-14253
▁dyk	-14254
rull	-14255
▁2002	-14256
▁berättig	-14257
Stock	-14258
öjning	-14259
▁rita	-14260
▁mysa	-14261
▁kartor	-14262
▁yttersta	-14263
▁Titt	-14264
▁Betal	-14265
▁årsmöte	-14266
ischer	-14267
▁Servic	-14268
etid	-14269
värdet	-14270
▁obligatoriskt	-14271
▁manatliga	-14272
▁Kraft	-14273
▁Exempelvis	-14274
▁reservdelar	-14275
altid	-14276
▁vitaminer	-14277
riktig	-14278
▁kreditvärdering	-14279
▁hörl	-14280
verkstad	-14281
▁Batt	-14282
▁beseg	-14283
▁flag	-14284
▁page	-14285
▁odla	-14286
▁Vispa	-14287
▁erbjudas	-14288
▁elektronik	-14289
yth	-14290
▁8,	-14291
▁påst	-14292
▁Beslut	-14293
▁etablera	-14294
▁Djurgården	-14295
färgad	-14296
▁gråta	-14297
▁effektivitet	-14298
uu	-14299
▁Not	-14300
▁leveran	-14301
▁stjärna	-14302
▁stressad	-14303
Erik	-14304
cen	-14305
undation	-14306
▁Nordens	-14307
▁tvång	-14308
▁Öpp	-14309
▁omhänder	-14310
▁Hi	-14311
▁scenar	-14312
▁Varberg	-14313
▁bryt	-14314
▁klok	-14315
▁halsband	-14316
▁inblick	-14317
ägaren	-14318
husen	-14319
▁opposition	-14320
▁begränsningar	-14321
göring	-14322
ästaren	-14323
▁kostym	-14324
EF	-14325
-07	-14326
▁Röda	-14327
▁lamp	-14328
▁Allmän	-14329
▁Trevlig	-14330
▁jättekul	-14331
▁huvudsakliga	-14332
▁liber	-14333
▁Tobias	-14334
unes	-14335
olycka	-14336
ilar	-14337
▁66	-14338
sbest	-14339
▁förnuft	-14340
äddning	-14341
▁CV	-14342
▁mönstret	-14343
▁UN	-14344
▁Tvätt	-14345
▁Mi	-14346
skapen	-14347
▁brotts	-14348
▁ägde	-14349
sförmedlingen	-14350
▁globalt	-14351
show	-14352
▁2001	-14353
▁Stream	-14354
▁pek	-14355
▁undrade	-14356
▁Enter	-14357
OG	-14358
▁hak	-14359
▁broms	-14360
▁listar	-14361
▁sjuksköterska	-14362
▁professionellt	-14363
▁hämtat	-14364
drat	-14365
▁räckte	-14366
skassan	-14367
▁okomplic	-14368
▁Bos	-14369
förbud	-14370
▁partierna	-14371
skur	-14372
▁ledsagare	-14373
stjärnan	-14374
▁misstänker	-14375
▁belägg	-14376
äna	-14377
▁Jör	-14378
medicin	-14379
▁sjutt	-14380
▁fångar	-14381
▁fästa	-14382
▁Kyrk	-14383
▁arbetss	-14384
▁Vak	-14385
▁upprep	-14386
.0	-14387
▁justera	-14388
slar	-14389
▁frien	-14390
▁lugnare	-14391
▁bedömer	-14392
▁onlinekasinon	-14393
▁syntet	-14394
▁Frisk	-14395
isse	-14396
▁non	-14397
▁Fire	-14398
viv	-14399
stata	-14400
skött	-14401
smöte	-14402
▁skulpt	-14403
▁skruv	-14404
▁ful	-14405
inredning	-14406
legg	-14407
▁småbarn	-14408
▁nyttigt	-14409
▁Store	-14410
▁björn	-14411
mattan	-14412
▁centimeter	-14413
▁turk	-14414
▁Passa	-14415
▁existerar	-14416
▁avdelningen	-14417
feldt	-14418
▁gedigen	-14419
▁vibrator	-14420
▁blixt	-14421
▁Stina	-14422
olån	-14423
▁Horn	-14424
▁bortom	-14425
listor	-14426
▁Mars	-14427
yright	-14428
kusten	-14429
skåpet	-14430
▁kolhydrater	-14431
▁uppväxt	-14432
▁Egy	-14433
▁misslyckas	-14434
▁skur	-14435
▁anpassat	-14436
▁hack	-14437
▁genomt	-14438
uttag	-14439
▁märkte	-14440
ålder	-14441
▁Pussy	-14442
jukv	-14443
▁Bakom	-14444
ligheterna	-14445
▁tända	-14446
▁Fan	-14447
▁konsten	-14448
▁speglar	-14449
ption	-14450
▁erhall	-14451
▁Landskrona	-14452
▁Arlanda	-14453
▁Kök	-14454
▁kongress	-14455
▁försäljnings	-14456
▁resterande	-14457
ulera	-14458
▁uppvärmning	-14459
▁Made	-14460
▁mi	-14461
▁Åland	-14462
iket	-14463
▁tråden	-14464
▁tillskott	-14465
▁blan	-14466
recept	-14467
▁öronen	-14468
▁omtyck	-14469
▁galleries	-14470
racial	-14471
▁kläm	-14472
▁disken	-14473
övning	-14474
riären	-14475
3%	-14476
Att	-14477
▁tipsar	-14478
såvitt	-14479
▁Rub	-14480
cyklar	-14481
▁Tjänsten	-14482
▁klimatet	-14483
skostnader	-14484
ettan	-14485
▁air	-14486
▁snara	-14487
▁salong	-14488
temperatur	-14489
▁paj	-14490
▁inledde	-14491
▁well	-14492
▁fältet	-14493
agram	-14494
visande	-14495
norr	-14496
▁oljor	-14497
alten	-14498
sty	-14499
▁­	-14500
kostnad	-14501
▁Vänligen	-14502
▁bloggare	-14503
▁intim	-14504
▁hetaste	-14505
▁forskningen	-14506
▁how	-14507
festival	-14508
ible	-14509
▁frans	-14510
hur	-14511
▁189	-14512
etts	-14513
▁nuläget	-14514
▁tränade	-14515
▁Längd	-14516
▁orätt	-14517
▁torget	-14518
▁Tjeckien	-14519
▁misshandel	-14520
gna	-14521
▁Äm	-14522
uls	-14523
▁glöd	-14524
▁lådor	-14525
isex	-14526
▁03	-14527
▁fastnar	-14528
▁Ebony	-14529
▁invänd	-14530
▁bekräftelse	-14531
▁rehabilitering	-14532
▁BK	-14533
endo	-14534
sbes	-14535
▁human	-14536
▁passerat	-14537
GE	-14538
▁Nina	-14539
omet	-14540
ugar	-14541
▁omgivningen	-14542
fen	-14543
▁Soker	-14544
▁landskapet	-14545
▁ask	-14546
▁Servera	-14547
▁pedagogiska	-14548
spolitik	-14549
kameror	-14550
▁uppskattad	-14551
▁Tru	-14552
kyrka	-14553
▁antik	-14554
▁ärendet	-14555
▁ersätter	-14556
företagen	-14557
то	-14558
▁sopp	-14559
▁institutioner	-14560
ped	-14561
▁lanade	-14562
▁inleddes	-14563
▁Amator	-14564
▁Inc	-14565
▁Kvalitet	-14566
▁ingredienserna	-14567
▁publicerades	-14568
flöd	-14569
▁finare	-14570
▁säljas	-14571
real	-14572
▁November	-14573
▁förbättras	-14574
ghan	-14575
tein	-14576
▁strump	-14577
HD	-14578
▁3,5	-14579
▁ki	-14580
▁their	-14581
▁undervisningen	-14582
▁CS	-14583
vuxen	-14584
▁tomma	-14585
▁bokföring	-14586
not	-14587
▁Örn	-14588
▁suver	-14589
espins	-14590
▁roulette	-14591
▁säkerställer	-14592
äkringar	-14593
▁framsidan	-14594
▁gårdagens	-14595
▁kontors	-14596
▁51	-14597
strakt	-14598
▁lyckat	-14599
▁Ull	-14600
▁medverkar	-14601
▁tolkning	-14602
▁förfog	-14603
▁PRO	-14604
▁soll	-14605
▁överblick	-14606
-/	-14607
▁Win	-14608
▁doften	-14609
sunder	-14610
▁timmen	-14611
▁Prakt	-14612
▁farfar	-14613
▁mångsid	-14614
usty	-14615
,...	-14616
▁flitigt	-14617
▁skära	-14618
▁Ah	-14619
▁rele	-14620
▁förekomma	-14621
68	-14622
▁läckra	-14623
ningstid	-14624
▁vågade	-14625
▁innehöll	-14626
älv	-14627
▁reflex	-14628
▁Sthlm	-14629
runda	-14630
▁gänget	-14631
▁utsidan	-14632
bandy	-14633
pension	-14634
▁seminarium	-14635
▁Leo	-14636
▁story	-14637
▁medvetet	-14638
När	-14639
▁neuro	-14640
upplevelser	-14641
order	-14642
▁samarbeten	-14643
▁Ute	-14644
▁publicerade	-14645
▁bubbel	-14646
▁protester	-14647
projektet	-14648
▁flug	-14649
▁Psyk	-14650
peppar	-14651
▁rättvisa	-14652
▁proced	-14653
▁läkemed	-14654
▁tu	-14655
artan	-14656
▁Linköpings	-14657
▁öm	-14658
sfatt	-14659
fiber	-14660
▁slick	-14661
▁Kontroller	-14662
▁Vasa	-14663
ämligen	-14664
▁188	-14665
▁imponerad	-14666
▁föds	-14667
▁Kläder	-14668
jorta	-14669
▁Rö	-14670
▁kraftiga	-14671
omme	-14672
▁Date	-14673
▁stapeln	-14674
▁målat	-14675
▁col	-14676
▁fortsättning	-14677
▁Café	-14678
▁auktion	-14679
▁valda	-14680
▁andelen	-14681
▁jävligt	-14682
▁old	-14683
▁Norrland	-14684
▁märka	-14685
utet	-14686
▁enskilt	-14687
kalender	-14688
▁tej	-14689
▁veckors	-14690
▁fastighetsägare	-14691
ällskap	-14692
▁letat	-14693
▁drink	-14694
▁boenden	-14695
▁stånd	-14696
▁skapades	-14697
▁ÄR	-14698
vattnet	-14699
▁versioner	-14700
▁samtalet	-14701
andras	-14702
▁observ	-14703
▁onsdags	-14704
▁Gabri	-14705
▁attraktiv	-14706
▁övervikt	-14707
▁önskel	-14708
▁Roger	-14709
intresse	-14710
▁huvudstaden	-14711
▁deltagit	-14712
▁personerna	-14713
ugn	-14714
skikt	-14715
▁fullständig	-14716
Fr	-14717
utsch	-14718
▁DU	-14719
▁forma	-14720
▁rus	-14721
▁människans	-14722
▁utförande	-14723
inkt	-14724
▁other	-14725
▁teamet	-14726
▁import	-14727
▁address	-14728
▁löner	-14729
slutning	-14730
▁längtan	-14731
syra	-14732
▁institution	-14733
win	-14734
loud	-14735
▁3-4	-14736
▁inhand	-14737
▁lönsamhet	-14738
tagarna	-14739
▁smöret	-14740
▁spär	-14741
▁Karolin	-14742
gröna	-14743
▁Kombin	-14744
▁lane	-14745
▁1700-	-14746
▁PM	-14747
▁jakten	-14748
▁forumet	-14749
install	-14750
perspektiv	-14751
ässigt	-14752
▁utvecklade	-14753
▁NHL	-14754
▁hotel	-14755
▁Classic	-14756
▁Käll	-14757
▁kaj	-14758
visas	-14759
period	-14760
▁Search	-14761
▁lanserades	-14762
brand	-14763
▁magasin	-14764
oney	-14765
▁stock	-14766
▁funnit	-14767
▁förstöra	-14768
▁Författ	-14769
vakten	-14770
▁Nav	-14771
▁fläsk	-14772
skningar	-14773
ouch	-14774
▁spåra	-14775
▁vilar	-14776
▁stämma	-14777
▁batterier	-14778
▁lektioner	-14779
Br	-14780
stars	-14781
▁tröjor	-14782
▁Pia	-14783
▁sep	-14784
srum	-14785
▁komplexa	-14786
kademin	-14787
▁värst	-14788
▁relaterade	-14789
▁Polis	-14790
▁högkvalitativa	-14791
▁turer	-14792
▁kusten	-14793
▁meet	-14794
▁second	-14795
▁förskol	-14796
synt	-14797
▁rosor	-14798
socker	-14799
▁Öppna	-14800
▁Manchester	-14801
CO	-14802
ivaren	-14803
▁Gustafsson	-14804
▁surfplatta	-14805
▁smält	-14806
▁Mått	-14807
aton	-14808
▁tisdags	-14809
▁VIP	-14810
▁hindrar	-14811
korn	-14812
▁FM	-14813
▁Ovan	-14814
▁utåt	-14815
▁tegel	-14816
▁blott	-14817
▁speed	-14818
▁Täby	-14819
▁vs	-14820
esi	-14821
ämpning	-14822
chatt	-14823
▁önskad	-14824
spo	-14825
▁bbw	-14826
emassage	-14827
▁grymma	-14828
▁biograf	-14829
insatser	-14830
▁boendet	-14831
▁mörkare	-14832
▁fotot	-14833
▁penning	-14834
▁tobak	-14835
▁Stift	-14836
gra	-14837
▁återvända	-14838
▁Hom	-14839
▁bägge	-14840
67	-14841
▁Järn	-14842
CD	-14843
▁squ	-14844
▁blommar	-14845
▁Finlands	-14846
AK	-14847
▁Migr	-14848
▁lekte	-14849
hastighet	-14850
▁poster	-14851
▁ble	-14852
▁Försälj	-14853
▁skrivet	-14854
▁Gin	-14855
▁dofter	-14856
▁journalister	-14857
▁lovande	-14858
ieras	-14859
▁pulver	-14860
▁anordnar	-14861
▁picture	-14862
▁68	-14863
head	-14864
▁jobbig	-14865
▁klev	-14866
kunskap	-14867
▁villor	-14868
beg	-14869
▁lovat	-14870
sljus	-14871
▁rinner	-14872
▁Hov	-14873
kelse	-14874
metoder	-14875
▁heder	-14876
▁protokoll	-14877
▁begränsa	-14878
▁servicen	-14879
ockor	-14880
▁berget	-14881
▁förbereder	-14882
alerna	-14883
▁krypa	-14884
▁tveka	-14885
▁jättes	-14886
gent	-14887
helg	-14888
▁Mell	-14889
▁02	-14890
▁tunt	-14891
▁Liding	-14892
▁kriminal	-14893
▁Nätdejting	-14894
▁SW	-14895
▁Fy	-14896
▁Coop	-14897
▁Premium	-14898
▁Normalt	-14899
titlar	-14900
▁movie	-14901
▁eleven	-14902
▁samlades	-14903
▁välbefinnande	-14904
▁offentligt	-14905
▁dropp	-14906
▁spill	-14907
▁flickan	-14908
▁ljusare	-14909
▁uthyrning	-14910
▁Tj	-14911
▁våldtäkt	-14912
▁Steg	-14913
▁strikt	-14914
▁våningen	-14915
▁Gri	-14916
▁nä	-14917
grens	-14918
ining	-14919
burgare	-14920
▁provade	-14921
partner	-14922
▁kroppar	-14923
fragan	-14924
▁snusk	-14925
▁Payday	-14926
▁lättillgäng	-14927
▁nätterna	-14928
▁Pont	-14929
ivanza	-14930
▁act	-14931
▁stabilt	-14932
▁ställas	-14933
serier	-14934
▁värma	-14935
▁spridning	-14936
OW	-14937
▁armen	-14938
▁förkylning	-14939
▁Vänsterpartiet	-14940
▁jaga	-14941
▁intag	-14942
AP	-14943
ito	-14944
▁äran	-14945
tecken	-14946
▁Alf	-14947
▁comp	-14948
▁hälsade	-14949
dö	-14950
▁Massor	-14951
▁bergen	-14952
▁maximalt	-14953
▁Sek	-14954
▁bang	-14955
▁huvudstad	-14956
▁försvunnit	-14957
▁spark	-14958
▁misslyck	-14959
▁Styrelsen	-14960
▁Vanligtvis	-14961
▁Blondin	-14962
42	-14963
bädd	-14964
▁Piteå	-14965
▁olycka	-14966
sänd	-14967
▁adcirca	-14968
▁Jönköpings	-14969
▁Ess	-14970
▁bakgrunds	-14971
▁mc	-14972
stell	-14973
▁bröt	-14974
▁smäll	-14975
▁kompat	-14976
▁lille	-14977
loss	-14978
Nu	-14979
kurser	-14980
▁huvudkontor	-14981
▁nyckeln	-14982
▁entreprenörer	-14983
▁avvik	-14984
nytning	-14985
▁Dy	-14986
▁koden	-14987
▁kosten	-14988
▁TH	-14989
▁Ned	-14990
▁högra	-14991
▁kvinnlig	-14992
▁lut	-14993
▁Funderar	-14994
▁motståndare	-14995
obe	-14996
▁Ukra	-14997
the	-14998
▁Diam	-14999
▁photos	-15000
-04	-15001
▁konsumtion	-15002
▁tron	-15003
sköterska	-15004
▁effektivare	-15005
▁uppmanar	-15006
▁albumet	-15007
arr	-15008
▁smälta	-15009
▁Liten	-15010
▁linne	-15011
▁Madrid	-15012
▁spektak	-15013
▁novell	-15014
▁nötter	-15015
beskriv	-15016
aktiv	-15017
▁härifrån	-15018
▁ledamöter	-15019
fukt	-15020
▁optimalt	-15021
▁juridiska	-15022
▁Bättre	-15023
▁kontot	-15024
▁lyckliga	-15025
▁marknads	-15026
nos	-15027
▁72	-15028
▁Energ	-15029
-30	-15030
▁Grå	-15031
förare	-15032
▁tilltr	-15033
▁utsätts	-15034
▁rekryter	-15035
▁bytas	-15036
▁Jesper	-15037
ught	-15038
▁Ikea	-15039
▁Chatt	-15040
▁Antingen	-15041
stock	-15042
mönster	-15043
▁Östergötland	-15044
▁%.	-15045
rickor	-15046
▁förtro	-15047
▁Undersök	-15048
påse	-15049
▁Movies	-15050
ldjur	-15051
▁intyg	-15052
kol	-15053
▁Clar	-15054
▁Angeles	-15055
▁py	-15056
iant	-15057
▁användarnamn	-15058
▁о	-15059
▁ringar	-15060
▁områdena	-15061
▁review	-15062
▁antibiot	-15063
▁förfrågan	-15064
▁Texas	-15065
vänlig	-15066
▁förklarade	-15067
▁gynn	-15068
skogen	-15069
/8	-15070
▁kraftfulla	-15071
▁Bilderna	-15072
▁(18	-15073
▁droger	-15074
▁fastnade	-15075
▁påminnelse	-15076
iala	-15077
▁sildenafil	-15078
▁självklara	-15079
▁Sebast	-15080
▁institutionen	-15081
▁Astrid	-15082
▁see	-15083
▁valpar	-15084
▁stygg	-15085
▁GD	-15086
▁gifter	-15087
▁Next	-15088
▁reserver	-15089
svetenskap	-15090
▁Uddevalla	-15091
BK	-15092
folk	-15093
▁modul	-15094
▁rakar	-15095
entrepren	-15096
▁kylan	-15097
▁sess	-15098
iksvall	-15099
▁micro	-15100
▁lekar	-15101
▁otal	-15102
index	-15103
▁sva	-15104
▁beställningar	-15105
▁elektroniska	-15106
▁doc	-15107
▁Solen	-15108
▁Kent	-15109
▁troligt	-15110
iblioteket	-15111
▁tadalafil	-15112
▁stilen	-15113
pens	-15114
▁mästare	-15115
▁utdelning	-15116
▁BR	-15117
MP	-15118
kopplande	-15119
▁dokumentär	-15120
usik	-15121
▁Aldrig	-15122
▁stimulera	-15123
psyk	-15124
▁funktionalitet	-15125
funktioner	-15126
plast	-15127
▁tagna	-15128
▁gestalt	-15129
▁Öland	-15130
▁konstig	-15131
ingst	-15132
terapi	-15133
fect	-15134
▁Söndag	-15135
▁levt	-15136
▁stry	-15137
rets	-15138
ektorn	-15139
▁Spring	-15140
SE	-15141
▁knyta	-15142
pal	-15143
▁befann	-15144
▁people	-15145
▁erbjudandet	-15146
▁wild	-15147
▁Standard	-15148
dragen	-15149
▁seminarier	-15150
▁japansk	-15151
webb	-15152
▁HEL	-15153
▁Åre	-15154
▁absor	-15155
gener	-15156
▁avslutning	-15157
fett	-15158
▁spray	-15159
sil	-15160
▁Music	-15161
▁Good	-15162
hemmet	-15163
▁förflutna	-15164
▁spra	-15165
dokument	-15166
▁döp	-15167
▁transpar	-15168
▁vinnande	-15169
▁Dream	-15170
!).	-15171
▁attityd	-15172
OCK	-15173
▁energin	-15174
▁ergon	-15175
ibeln	-15176
▁bekost	-15177
▁sjätte	-15178
▁Innov	-15179
▁målsättning	-15180
▁ansträngning	-15181
▁Kategorier	-15182
▁ranking	-15183
▁arbetslivet	-15184
▁spän	-15185
/9	-15186
▁giss	-15187
ка	-15188
▁horis	-15189
▁sadel	-15190
ligh	-15191
▁Mill	-15192
▁helikop	-15193
▁utföras	-15194
svara	-15195
▁sökmotor	-15196
▁Absol	-15197
▁betalat	-15198
▁Underbart	-15199
regn	-15200
▁likaså	-15201
▁besökarna	-15202
▁Bio	-15203
▁Ohl	-15204
▁gos	-15205
partementet	-15206
▁hindra	-15207
▁taggad	-15208
▁Kommunen	-15209
▁Kerstin	-15210
▁femton	-15211
▁kulturella	-15212
▁förlängning	-15213
stal	-15214
▁eng	-15215
egränsat	-15216
▁utbildade	-15217
elj	-15218
▁kvantitet	-15219
▁beslutar	-15220
▁nyanlända	-15221
agon	-15222
mera	-15223
▁bedrivs	-15224
Ett	-15225
▁sträckan	-15226
oma	-15227
▁fattas	-15228
▁turné	-15229
▁slottet	-15230
▁biverkningar	-15231
▁Höst	-15232
▁onda	-15233
udenterna	-15234
open	-15235
▁Dar	-15236
▁semif	-15237
▁vinnaren	-15238
▁regelbunden	-15239
önst	-15240
▁Karolinska	-15241
iansen	-15242
▁Halv	-15243
▁snarast	-15244
▁distribu	-15245
auty	-15246
bella	-15247
▁hylla	-15248
nect	-15249
▁Brasilien	-15250
vägs	-15251
arg	-15252
lärare	-15253
▁fotbolls	-15254
▁Math	-15255
▁vas	-15256
sekonomi	-15257
▁apt	-15258
lyft	-15259
▁återvänder	-15260
festen	-15261
gymnas	-15262
▁Hjäl	-15263
▁US	-15264
-25	-15265
On	-15266
▁Shemale	-15267
[...]
